#pragma once
#include <cstddef>

/* Model labels */
#define snore_MODEL_LABEL_UNLABELLED  0
#define snore_MODEL_LABEL_snore       1
#define snore_MODEL_NUM_CLASSES        2

/* Model input/preprocessing parameters matched to firmware snore_detect.cpp. */
#define snore_MODEL_INPUT_FRAMES       60
#define snore_MODEL_INPUT_FREQ_BINS    20
#define snore_MODEL_INPUT_CHANNELS     1
#define snore_MODEL_SAMPLE_RATE        16000
#define snore_MODEL_FFT_SIZE           512
#define snore_MODEL_FFT_HOP            160
#define snore_MODEL_MEL_BINS           20

#if defined __GNUC__
#define ALIGN(X) __attribute__((aligned(X)))
#elif defined _MSC_VER
#define ALIGN(X) __declspec(align(X))
#else
#define ALIGN(X)
#endif

/*
 * Full-int8 TFLite model trained from D:/STUDY/Snoring Dataset.
 * Source artifact: rt_12_24_40_d24.keras
 * Input: int8 [1,60,20], scale=0.05366401747, zero_point=22.
 * Output: int8 [1,2], scale=0.00390625, zero_point=-128.
 * Class 0 is unlabelled/no-snore; class 1 is snore.
 * Evaluation threshold used by firmware: 0.6.
 * Runtime target: TFLite Micro on Cortex-M55, CMSIS-NN/Helium compatible ops.
 */

ALIGN(16) static const unsigned char snore_model_tflite[] = {
    0x1c, 0x00, 0x00, 0x00, 0x54, 0x46, 0x4c, 0x33, 0x14, 0x00, 0x20, 0x00,
    0x1c, 0x00, 0x18, 0x00, 0x14, 0x00, 0x10, 0x00, 0x0c, 0x00, 0x00, 0x00,
    0x08, 0x00, 0x04, 0x00, 0x14, 0x00, 0x00, 0x00, 0x1c, 0x00, 0x00, 0x00,
    0x8c, 0x00, 0x00, 0x00, 0xe4, 0x00, 0x00, 0x00, 0xd0, 0x34, 0x00, 0x00,
    0xe0, 0x34, 0x00, 0x00, 0x54, 0x53, 0x00, 0x00, 0x03, 0x00, 0x00, 0x00,
    0x01, 0x00, 0x00, 0x00, 0x04, 0x00, 0x00, 0x00, 0x96, 0xc8, 0xff, 0xff,
    0x0c, 0x00, 0x00, 0x00, 0x1c, 0x00, 0x00, 0x00, 0x3c, 0x00, 0x00, 0x00,
    0x0f, 0x00, 0x00, 0x00, 0x73, 0x65, 0x72, 0x76, 0x69, 0x6e, 0x67, 0x5f,
    0x64, 0x65, 0x66, 0x61, 0x75, 0x6c, 0x74, 0x00, 0x01, 0x00, 0x00, 0x00,
    0x04, 0x00, 0x00, 0x00, 0x90, 0xff, 0xff, 0xff, 0x1d, 0x00, 0x00, 0x00,
    0x04, 0x00, 0x00, 0x00, 0x08, 0x00, 0x00, 0x00, 0x6f, 0x75, 0x74, 0x70,
    0x75, 0x74, 0x5f, 0x30, 0x00, 0x00, 0x00, 0x00, 0x01, 0x00, 0x00, 0x00,
    0x04, 0x00, 0x00, 0x00, 0x9e, 0xc8, 0xff, 0xff, 0x04, 0x00, 0x00, 0x00,
    0x0d, 0x00, 0x00, 0x00, 0x6c, 0x61, 0x79, 0x65, 0x72, 0x5f, 0x30, 0x5f,
    0x69, 0x6e, 0x70, 0x75, 0x74, 0x00, 0x00, 0x00, 0x02, 0x00, 0x00, 0x00,
    0x34, 0x00, 0x00, 0x00, 0x04, 0x00, 0x00, 0x00, 0xdc, 0xff, 0xff, 0xff,
    0x20, 0x00, 0x00, 0x00, 0x04, 0x00, 0x00, 0x00, 0x13, 0x00, 0x00, 0x00,
    0x43, 0x4f, 0x4e, 0x56, 0x45, 0x52, 0x53, 0x49, 0x4f, 0x4e, 0x5f, 0x4d,
    0x45, 0x54, 0x41, 0x44, 0x41, 0x54, 0x41, 0x00, 0x08, 0x00, 0x0c, 0x00,
    0x08, 0x00, 0x04, 0x00, 0x08, 0x00, 0x00, 0x00, 0x1f, 0x00, 0x00, 0x00,
    0x04, 0x00, 0x00, 0x00, 0x13, 0x00, 0x00, 0x00, 0x6d, 0x69, 0x6e, 0x5f,
    0x72, 0x75, 0x6e, 0x74, 0x69, 0x6d, 0x65, 0x5f, 0x76, 0x65, 0x72, 0x73,
    0x69, 0x6f, 0x6e, 0x00, 0x21, 0x00, 0x00, 0x00, 0xe8, 0x33, 0x00, 0x00,
    0xe0, 0x33, 0x00, 0x00, 0xcc, 0x33, 0x00, 0x00, 0xb8, 0x33, 0x00, 0x00,
    0xa4, 0x33, 0x00, 0x00, 0x90, 0x33, 0x00, 0x00, 0x88, 0x33, 0x00, 0x00,
    0x70, 0x33, 0x00, 0x00, 0x58, 0x33, 0x00, 0x00, 0x18, 0x33, 0x00, 0x00,
    0xa8, 0x32, 0x00, 0x00, 0xd8, 0x2e, 0x00, 0x00, 0x28, 0x2e, 0x00, 0x00,
    0x58, 0x0c, 0x00, 0x00, 0xe8, 0x0b, 0x00, 0x00, 0xb8, 0x01, 0x00, 0x00,
    0x78, 0x01, 0x00, 0x00, 0xfc, 0x00, 0x00, 0x00, 0xf4, 0x00, 0x00, 0x00,
    0xec, 0x00, 0x00, 0x00, 0xe4, 0x00, 0x00, 0x00, 0xdc, 0x00, 0x00, 0x00,
    0xd4, 0x00, 0x00, 0x00, 0xcc, 0x00, 0x00, 0x00, 0xc4, 0x00, 0x00, 0x00,
    0xbc, 0x00, 0x00, 0x00, 0xb4, 0x00, 0x00, 0x00, 0xac, 0x00, 0x00, 0x00,
    0xa4, 0x00, 0x00, 0x00, 0x9c, 0x00, 0x00, 0x00, 0x94, 0x00, 0x00, 0x00,
    0x74, 0x00, 0x00, 0x00, 0x04, 0x00, 0x00, 0x00, 0x9e, 0xc9, 0xff, 0xff,
    0x04, 0x00, 0x00, 0x00, 0x60, 0x00, 0x00, 0x00, 0x0c, 0x00, 0x00, 0x00,
    0x08, 0x00, 0x0e, 0x00, 0x08, 0x00, 0x04, 0x00, 0x08, 0x00, 0x00, 0x00,
    0x10, 0x00, 0x00, 0x00, 0x28, 0x00, 0x00, 0x00, 0x00, 0x00, 0x06, 0x00,
    0x08, 0x00, 0x04, 0x00, 0x06, 0x00, 0x00, 0x00, 0x04, 0x00, 0x00, 0x00,
    0x01, 0x00, 0x00, 0x00, 0xeb, 0x03, 0x00, 0x00, 0x0c, 0x00, 0x18, 0x00,
    0x14, 0x00, 0x10, 0x00, 0x0c, 0x00, 0x04, 0x00, 0x0c, 0x00, 0x00, 0x00,
    0xac, 0x55, 0xab, 0x32, 0x7b, 0xb8, 0x60, 0x4e, 0x02, 0x00, 0x00, 0x00,
    0x02, 0x00, 0x00, 0x00, 0x04, 0x00, 0x00, 0x00, 0x06, 0x00, 0x00, 0x00,
    0x32, 0x2e, 0x32, 0x31, 0x2e, 0x30, 0x00, 0x00, 0x0a, 0xca, 0xff, 0xff,
    0x04, 0x00, 0x00, 0x00, 0x10, 0x00, 0x00, 0x00, 0x31, 0x2e, 0x31, 0x34,
    0x2e, 0x30, 0x00, 0x00, 0x00, 0x00, 0x00, 0x00, 0x00, 0x00, 0x00, 0x00,
    0x84, 0xaf, 0xff, 0xff, 0x88, 0xaf, 0xff, 0xff, 0x8c, 0xaf, 0xff, 0xff,
    0x90, 0xaf, 0xff, 0xff, 0x94, 0xaf, 0xff, 0xff, 0x98, 0xaf, 0xff, 0xff,
    0x9c, 0xaf, 0xff, 0xff, 0xa0, 0xaf, 0xff, 0xff, 0xa4, 0xaf, 0xff, 0xff,
    0xa8, 0xaf, 0xff, 0xff, 0xac, 0xaf, 0xff, 0xff, 0xb0, 0xaf, 0xff, 0xff,
    0xb4, 0xaf, 0xff, 0xff, 0x5a, 0xca, 0xff, 0xff, 0x04, 0x00, 0x00, 0x00,
    0x6c, 0x00, 0x00, 0x00, 0xcf, 0x22, 0xa8, 0x7f, 0x39, 0xcb, 0x75, 0x57,
    0x98, 0xe3, 0x7f, 0xc2, 0xe3, 0x73, 0xaf, 0xc6, 0x20, 0xaf, 0x7b, 0xe5,
    0x81, 0x56, 0x0a, 0xbd, 0x2a, 0x36, 0xa8, 0xe2, 0xf3, 0x2a, 0x2b, 0x09,
    0x6c, 0x81, 0xf7, 0xc6, 0xce, 0x92, 0xbb, 0x14, 0x62, 0xfd, 0x69, 0x7f,
    0x2f, 0xb5, 0xa7, 0x79, 0xda, 0x38, 0x44, 0x81, 0x43, 0x4b, 0xe7, 0x4d,
    0xc4, 0x85, 0x62, 0x02, 0x15, 0x7f, 0xe7, 0x14, 0xd3, 0x7f, 0x38, 0x8e,
    0x35, 0x33, 0xbd, 0x62, 0x4a, 0x11, 0xd2, 0x7f, 0x65, 0xde, 0x62, 0xbf,
    0xd1, 0xde, 0x17, 0xa8, 0xc6, 0xff, 0xeb, 0x7f, 0x40, 0x06, 0x7f, 0x81,
    0xe6, 0xaa, 0xb4, 0xec, 0xcd, 0x39, 0xb7, 0x07, 0xa3, 0xef, 0xe1, 0x97,
    0x98, 0x7f, 0xb1, 0xb1, 0xd2, 0xca, 0xff, 0xff, 0x04, 0x00, 0x00, 0x00,
    0x30, 0x00, 0x00, 0x00, 0xf4, 0xff, 0xff, 0xff, 0x47, 0x00, 0x00, 0x00,
    0x6e, 0x02, 0x00, 0x00, 0xb6, 0xff, 0xff, 0xff, 0x07, 0xfa, 0xff, 0xff,
    0xca, 0x00, 0x00, 0x00, 0xa0, 0xfe, 0xff, 0xff, 0x2c, 0xfe, 0xff, 0xff,
    0x01, 0x00, 0x00, 0x00, 0xa9, 0x01, 0x00, 0x00, 0xe5, 0xfd, 0xff, 0xff,
    0xdb, 0xff, 0xff, 0xff, 0x0e, 0xcb, 0xff, 0xff, 0x04, 0x00, 0x00, 0x00,
    0x20, 0x0a, 0x00, 0x00, 0xa8, 0x94, 0x56, 0x41, 0x95, 0xd5, 0x8e, 0xf2,
    0xe2, 0x3a, 0xba, 0x11, 0x27, 0x25, 0xbd, 0x0a, 0x6a, 0x03, 0x58, 0x14,
    0xe9, 0x3a, 0x30, 0x43, 0x41, 0xa6, 0x18, 0x57, 0xbb, 0xbf, 0xef, 0x2b,
    0x14, 0x16, 0x43, 0x5a, 0xf9, 0xe7, 0x63, 0xec, 0xf9, 0x22, 0xd8, 0xe8,
    0xba, 0x1d, 0x2a, 0xd5, 0x2f, 0x08, 0xca, 0x21, 0xff, 0x6c, 0x50, 0xb1,
    0xcd, 0xad, 0xa6, 0x23, 0xf4, 0xb8, 0x2a, 0x3d, 0x07, 0xe0, 0x0c, 0xd1,
    0xd4, 0x0e, 0xa3, 0xf8, 0xaa, 0xf0, 0x18, 0xaf, 0x0d, 0xdb, 0xe0, 0xb9,
    0xee, 0x3b, 0xc6, 0xd3, 0xf7, 0xfa, 0xc0, 0x6f, 0xd9, 0x7f, 0x62, 0x32,
    0x20, 0x28, 0x1b, 0xef, 0x03, 0x0d, 0x6b, 0x26, 0xc6, 0xe1, 0x06, 0xd9,
    0x66, 0xc1, 0x08, 0xc2, 0xe3, 0x07, 0x97, 0xe6, 0xbb, 0x4f, 0xff, 0x04,
    0xfb, 0xde, 0x09, 0x31, 0xd6, 0x4a, 0x0a, 0x0f, 0xba, 0x37, 0x22, 0xe1,
    0xd2, 0x91, 0xe7, 0x18, 0x26, 0x4a, 0xef, 0xef, 0xff, 0x04, 0x0c, 0xf8,
    0x22, 0xfa, 0x2c, 0xf7, 0xe7, 0x42, 0x95, 0xd6, 0xf7, 0x08, 0x01, 0xe7,
    0x81, 0xe3, 0xca, 0x4b, 0xd5, 0x42, 0xd0, 0xc6, 0xe9, 0x2e, 0xc8, 0x43,
    0x92, 0xe8, 0xba, 0xf7, 0xd2, 0x37, 0xd4, 0xbd, 0xf9, 0x1d, 0x11, 0x1a,
    0xf1, 0xdd, 0xcc, 0xb2, 0xdc, 0x24, 0x19, 0xcb, 0x2a, 0x17, 0x09, 0xfe,
    0xc5, 0xf2, 0xcf, 0xec, 0xe9, 0xf2, 0xc4, 0xdd, 0x1f, 0x14, 0x0a, 0x38,
    0x13, 0x24, 0x28, 0xeb, 0x4b, 0x60, 0xf2, 0xcc, 0x12, 0x0c, 0x53, 0x61,
    0x03, 0x07, 0xc4, 0x27, 0x9d, 0xcc, 0x92, 0xa5, 0xa5, 0xfc, 0xdd, 0xd9,
    0xc8, 0x06, 0x33, 0xfe, 0xd5, 0xfb, 0xc4, 0x07, 0xfe, 0xbc, 0xd1, 0xf6,
    0xe5, 0x1b, 0x3b, 0x25, 0x3b, 0x03, 0xed, 0xd7, 0xe7, 0x3f, 0x55, 0xe1,
    0xc3, 0x3b, 0xb4, 0xe9, 0xb0, 0x12, 0x10, 0x1c, 0xda, 0xe3, 0x21, 0x19,
    0x22, 0xd4, 0xe5, 0xe9, 0x4e, 0x54, 0xcd, 0xcc, 0xcd, 0xc0, 0x5c, 0xf9,
    0x32, 0xde, 0xeb, 0xec, 0xfe, 0x44, 0x47, 0x0d, 0xbb, 0x54, 0x55, 0x19,
    0xdd, 0xd7, 0x0c, 0xb7, 0x81, 0x04, 0xef, 0x28, 0xad, 0xc8, 0xe4, 0x1f,
    0x11, 0xac, 0x32, 0x06, 0x0e, 0x68, 0xec, 0x09, 0xec, 0x04, 0x42, 0x41,
    0x35, 0xec, 0x05, 0x35, 0xf5, 0x06, 0xdc, 0xca, 0x23, 0x41, 0xd2, 0x0b,
    0x30, 0xaa, 0x10, 0x30, 0x98, 0x0e, 0x9c, 0xad, 0xf0, 0xe2, 0x26, 0x11,
    0x98, 0x81, 0xca, 0x06, 0x49, 0x62, 0x39, 0x2b, 0x21, 0xdd, 0x45, 0x16,
    0xe3, 0x60, 0x31, 0xd3, 0xb5, 0x0c, 0x1c, 0xb3, 0xca, 0x49, 0xfa, 0xdb,
    0xc3, 0xcb, 0x0e, 0x28, 0xb3, 0x2f, 0x29, 0xbb, 0xa7, 0xd6, 0x53, 0x06,
    0xb0, 0xf1, 0xcd, 0x0b, 0xeb, 0x25, 0x26, 0x15, 0x19, 0x15, 0x4f, 0x4b,
    0x3f, 0xf9, 0x3c, 0xcd, 0xf3, 0x00, 0x2e, 0x21, 0xb4, 0x62, 0x48, 0xd7,
    0xc1, 0xaf, 0xc8, 0xab, 0xb3, 0x00, 0xf5, 0xf1, 0x9e, 0x14, 0x19, 0x46,
    0xf4, 0xae, 0x3b, 0x36, 0x10, 0x2e, 0x5b, 0x11, 0xc2, 0x48, 0x13, 0x6e,
    0xef, 0x5c, 0xec, 0x0e, 0xd8, 0x26, 0x4b, 0xca, 0xa4, 0x58, 0xed, 0xc2,
    0x01, 0xdf, 0xc0, 0x0c, 0xed, 0xf7, 0x25, 0xca, 0xee, 0xf3, 0xcd, 0x01,
    0xd7, 0x19, 0x02, 0x10, 0xd1, 0xe6, 0xf8, 0x14, 0x03, 0x36, 0x1b, 0x2d,
    0xb6, 0x98, 0x09, 0x1b, 0x1e, 0x48, 0x0a, 0xf4, 0x05, 0x0b, 0x25, 0x40,
    0xee, 0xe3, 0x08, 0xfd, 0x19, 0xf5, 0x14, 0xff, 0xf8, 0xda, 0xec, 0xe7,
    0x1d, 0xe4, 0xf7, 0x38, 0x99, 0xc9, 0xc8, 0xf6, 0x00, 0x14, 0xca, 0x23,
    0xac, 0x81, 0x11, 0xd9, 0x1e, 0x3b, 0xfd, 0x19, 0x29, 0x06, 0x5b, 0x5f,
    0x1a, 0xe3, 0xf5, 0xf9, 0x2e, 0xec, 0x0e, 0xf6, 0xdf, 0xe6, 0xcc, 0xe6,
    0x1d, 0x13, 0x09, 0x15, 0x9e, 0xc7, 0xbb, 0x24, 0x11, 0x32, 0xca, 0x2c,
    0xe7, 0x83, 0x16, 0xf6, 0x05, 0x43, 0xed, 0x02, 0x1b, 0x2b, 0x79, 0x3a,
    0x09, 0x06, 0xd4, 0xf3, 0xef, 0x6d, 0x19, 0xb7, 0x50, 0x09, 0x02, 0x07,
    0xc2, 0xfe, 0xce, 0xb8, 0x3f, 0x38, 0xee, 0xcc, 0xcd, 0x37, 0x7e, 0x33,
    0x34, 0x7f, 0x20, 0xfb, 0x54, 0x08, 0x22, 0x0d, 0x36, 0x1e, 0x3b, 0xf1,
    0x2a, 0xe4, 0x4d, 0xff, 0x59, 0x64, 0x64, 0xad, 0xe3, 0x55, 0x59, 0x55,
    0x4e, 0x40, 0xc9, 0xa4, 0x48, 0x6f, 0xd6, 0x08, 0xda, 0xbc, 0xf1, 0x26,
    0x15, 0xf1, 0x18, 0xd9, 0x0d, 0xbe, 0x40, 0x31, 0xd0, 0x03, 0xce, 0x2e,
    0xeb, 0xc9, 0xf6, 0xaf, 0x22, 0x6a, 0x57, 0x1d, 0xc7, 0xef, 0x3a, 0x4c,
    0x62, 0x50, 0xff, 0x16, 0x01, 0x39, 0xf0, 0xf6, 0x2e, 0xd3, 0xed, 0x2b,
    0x1c, 0x1c, 0x1a, 0xea, 0x18, 0xf2, 0xfd, 0x27, 0x49, 0xc8, 0xca, 0x26,
    0x4b, 0xe3, 0xb4, 0xe7, 0xa6, 0xee, 0xfd, 0xea, 0x88, 0x25, 0x22, 0xb4,
    0xd6, 0xd5, 0x25, 0xcf, 0x33, 0x59, 0xc4, 0xac, 0xe4, 0xd8, 0xd8, 0xb5,
    0x10, 0x20, 0xe5, 0xdd, 0xc2, 0x00, 0x02, 0xff, 0xf9, 0xfd, 0xb1, 0x39,
    0x9e, 0xf3, 0x28, 0xfb, 0x1f, 0xf6, 0x06, 0xef, 0x38, 0x34, 0x1f, 0xd4,
    0x04, 0x53, 0xf6, 0x14, 0xe5, 0x3e, 0xd0, 0xb1, 0x15, 0xe8, 0x0e, 0x2f,
    0xb7, 0x5a, 0x29, 0xd0, 0x2f, 0xe9, 0xe5, 0xfa, 0x4f, 0x37, 0x52, 0xbf,
    0xc3, 0x5d, 0x3d, 0xc3, 0x7f, 0x1c, 0xe6, 0xcb, 0x62, 0xf8, 0x26, 0xe0,
    0xdb, 0x65, 0xaf, 0x1d, 0x0a, 0x25, 0xc0, 0x33, 0x5d, 0x1a, 0xe1, 0xce,
    0xe4, 0x56, 0x28, 0xde, 0x58, 0x3f, 0x13, 0xe5, 0x40, 0xcc, 0x32, 0x56,
    0x14, 0xe7, 0xd0, 0xd3, 0x0d, 0x9f, 0x46, 0x01, 0x13, 0x4d, 0xec, 0xe8,
    0xf8, 0x98, 0x1e, 0x21, 0xf1, 0x7f, 0x2a, 0x34, 0x4b, 0x31, 0x2f, 0xf3,
    0xcb, 0xf9, 0x98, 0xda, 0xfd, 0x98, 0x4f, 0x2b, 0x4b, 0xb1, 0xcf, 0x46,
    0x1a, 0x1e, 0xec, 0x2c, 0x2f, 0xa3, 0xe6, 0x17, 0xfe, 0x38, 0xcb, 0x27,
    0x1e, 0xca, 0x23, 0x1f, 0xf0, 0x7c, 0xd1, 0x1e, 0xfe, 0x02, 0x40, 0x3f,
    0xc3, 0x25, 0xd7, 0xc7, 0xfc, 0x8d, 0x14, 0x04, 0x11, 0xef, 0x1e, 0xfe,
    0x4c, 0x10, 0xdd, 0x1a, 0xfb, 0xaf, 0xea, 0x0c, 0x1b, 0xfa, 0x15, 0x55,
    0x22, 0x9c, 0x16, 0x2b, 0xf9, 0x5d, 0xdd, 0x2b, 0x53, 0x41, 0x10, 0x17,
    0x03, 0x37, 0xcd, 0xb7, 0xe1, 0x94, 0x1e, 0xe5, 0x50, 0xd0, 0xcc, 0xef,
    0x25, 0xbb, 0x35, 0x36, 0xdc, 0x60, 0x60, 0xd7, 0xb6, 0x0b, 0x3c, 0xfd,
    0x4f, 0x4a, 0x25, 0x19, 0xd7, 0x31, 0x3d, 0x26, 0x09, 0xf8, 0x21, 0xdb,
    0x31, 0xa2, 0xc6, 0xcc, 0x15, 0x01, 0xbf, 0xf8, 0x57, 0xcd, 0x49, 0xd8,
    0xfb, 0xf0, 0x01, 0xdd, 0xf5, 0x7f, 0x5b, 0xda, 0xd7, 0x30, 0x15, 0x64,
    0xe4, 0x08, 0x15, 0xeb, 0xc7, 0x2c, 0x07, 0xf4, 0xd5, 0xb8, 0x2c, 0xe6,
    0x3c, 0x04, 0xd0, 0xd0, 0x42, 0x1f, 0xf0, 0x07, 0x65, 0xc0, 0x22, 0xe2,
    0xe5, 0x45, 0x25, 0x26, 0x2b, 0xf0, 0x40, 0x2d, 0x3b, 0xbd, 0x5a, 0x63,
    0x37, 0x45, 0xb4, 0xe0, 0x04, 0x27, 0x3a, 0xdc, 0xf4, 0xff, 0x4d, 0xd5,
    0x40, 0x21, 0xf4, 0xec, 0x4b, 0x9a, 0xdf, 0x3f, 0x1a, 0xae, 0x27, 0x37,
    0x24, 0x15, 0xec, 0x98, 0x0b, 0xe2, 0x55, 0x36, 0x36, 0x22, 0x16, 0xf5,
    0x29, 0x1b, 0x8f, 0x0a, 0x57, 0xd8, 0x16, 0x1b, 0xec, 0xc9, 0xa4, 0xcf,
    0xd7, 0xd9, 0x8c, 0x81, 0x36, 0x23, 0x2f, 0x22, 0xbe, 0x53, 0x8e, 0xb2,
    0xf4, 0xd3, 0xff, 0xfe, 0xdb, 0x26, 0xd3, 0x4b, 0x26, 0xfd, 0x45, 0xe1,
    0x6d, 0xee, 0xcc, 0x29, 0x44, 0xcb, 0x3d, 0x0c, 0x01, 0xf9, 0x9c, 0xbc,
    0xf0, 0x31, 0x25, 0xca, 0xe5, 0xa7, 0xcc, 0xd2, 0xce, 0x08, 0xad, 0xe6,
    0xd0, 0xfb, 0xf3, 0x32, 0xc9, 0x1f, 0x34, 0x42, 0xfa, 0x52, 0xdf, 0xa3,
    0x63, 0xe3, 0x15, 0xbb, 0x04, 0xd1, 0x49, 0x2a, 0xdc, 0xed, 0xac, 0xee,
    0x24, 0xba, 0x2c, 0x18, 0x08, 0xb0, 0xe0, 0x1f, 0x21, 0xb3, 0xcc, 0x41,
    0xcf, 0xf7, 0x2b, 0x3d, 0x1c, 0x95, 0x11, 0xc2, 0x48, 0xf7, 0x4a, 0x0c,
    0x19, 0xf8, 0xb6, 0x89, 0xfb, 0xbd, 0x4f, 0x0f, 0x31, 0xe7, 0xd0, 0xf3,
    0xd3, 0xe5, 0x93, 0x8e, 0x14, 0xe6, 0xce, 0x01, 0xce, 0xf1, 0xc6, 0x1f,
    0xad, 0x98, 0xc9, 0x4e, 0x0a, 0xe8, 0x44, 0xf7, 0xe2, 0x1e, 0xc4, 0xe6,
    0x4e, 0x3c, 0x88, 0xe2, 0x19, 0xf8, 0xf2, 0xd8, 0xbc, 0x96, 0xd6, 0x47,
    0xda, 0x03, 0x00, 0xd0, 0xf1, 0xc9, 0xa0, 0x2b, 0x29, 0x32, 0x3e, 0xcb,
    0x21, 0xc3, 0xe7, 0x49, 0x1c, 0x81, 0x09, 0xe1, 0xfa, 0xd8, 0x02, 0x2c,
    0x2d, 0x40, 0xb8, 0xd4, 0x3c, 0x1c, 0x44, 0x0d, 0x11, 0xa4, 0x21, 0xf5,
    0xe7, 0xf6, 0x29, 0xf0, 0xfa, 0xef, 0xbc, 0x29, 0xc3, 0x42, 0x19, 0x04,
    0xae, 0xcf, 0x0f, 0xd6, 0x18, 0xec, 0x0f, 0x3e, 0x42, 0xef, 0x1b, 0xee,
    0x05, 0x26, 0x00, 0xb4, 0x3a, 0x0c, 0x17, 0x2b, 0x1d, 0xbb, 0xe1, 0xd9,
    0x1d, 0x0b, 0xda, 0xc6, 0xf8, 0x29, 0x2c, 0x05, 0x02, 0x81, 0xd1, 0xf5,
    0x2f, 0xe2, 0x02, 0x1c, 0xfc, 0x35, 0x46, 0x01, 0x01, 0xe3, 0xdc, 0x0a,
    0x1b, 0x4a, 0xe5, 0xc2, 0x1e, 0xc9, 0x29, 0x0b, 0xfc, 0x92, 0xc8, 0xcc,
    0x09, 0xc7, 0x06, 0x12, 0x11, 0x2a, 0x22, 0xfa, 0xfe, 0xc1, 0x0e, 0xff,
    0xe4, 0xd8, 0xc7, 0x04, 0x1b, 0x0b, 0x2c, 0xfd, 0x3c, 0xdb, 0x0c, 0x47,
    0x29, 0x37, 0x3a, 0x3f, 0x18, 0x20, 0x01, 0x08, 0x16, 0x93, 0x24, 0xfd,
    0xf9, 0xea, 0xcc, 0xeb, 0xd7, 0x35, 0x3f, 0xcf, 0x3a, 0x93, 0xfd, 0xb1,
    0xe2, 0xf9, 0x05, 0x08, 0x2e, 0xef, 0x63, 0x14, 0xdd, 0xea, 0xdc, 0xe9,
    0x61, 0x1a, 0xb0, 0x13, 0xf8, 0x32, 0xf8, 0xc3, 0xa9, 0xc8, 0xff, 0xa0,
    0x57, 0x3a, 0xca, 0xd4, 0xe1, 0x66, 0xc1, 0xa8, 0xca, 0xe8, 0x37, 0xc3,
    0xca, 0xe0, 0xeb, 0xd6, 0x23, 0xe4, 0x0e, 0x1f, 0x07, 0x6e, 0x20, 0x3c,
    0xda, 0xf3, 0x13, 0xc3, 0xe4, 0x5a, 0x38, 0xb9, 0xa4, 0xdc, 0xa9, 0xd8,
    0xe1, 0xb5, 0xdd, 0xec, 0xae, 0xed, 0x2c, 0xad, 0x14, 0x18, 0xe7, 0xc7,
    0xd6, 0x37, 0x4d, 0x40, 0x44, 0x29, 0x69, 0xbc, 0xbc, 0xfb, 0x31, 0x0d,
    0x55, 0x2e, 0xc3, 0xe1, 0xe3, 0xe7, 0xe0, 0xf1, 0x08, 0x81, 0xe3, 0x2a,
    0xd5, 0x2f, 0xc7, 0x32, 0x2b, 0x41, 0x30, 0x83, 0xb3, 0xff, 0xdc, 0xc4,
    0x9a, 0x0f, 0x15, 0xf0, 0xd8, 0x37, 0xc5, 0xd4, 0xed, 0x0c, 0xc4, 0xd7,
    0x37, 0xe9, 0xf5, 0x30, 0xc9, 0x08, 0xeb, 0xdf, 0x1b, 0xe2, 0x40, 0x50,
    0xec, 0xec, 0xb5, 0xd8, 0xc7, 0x18, 0x11, 0xed, 0x34, 0x3c, 0x20, 0xf0,
    0xfb, 0x0c, 0x0b, 0xdb, 0x0e, 0xcf, 0xbc, 0xe6, 0x45, 0x05, 0x2f, 0xff,
    0xef, 0xbd, 0x4e, 0x06, 0x34, 0x35, 0xac, 0x0f, 0x0c, 0xdd, 0x29, 0x55,
    0xcf, 0xba, 0x81, 0xbb, 0x0c, 0x24, 0x19, 0x08, 0x22, 0xe8, 0xdf, 0x44,
    0xe6, 0x43, 0x01, 0x37, 0x08, 0xd6, 0xfd, 0x0d, 0x0c, 0x45, 0x3a, 0xe1,
    0xcb, 0x21, 0xe4, 0x0d, 0xd0, 0x26, 0x03, 0x15, 0x36, 0xfb, 0xe9, 0x32,
    0xc7, 0xeb, 0xfc, 0xc5, 0xeb, 0x01, 0xdb, 0x04, 0x31, 0xf0, 0xde, 0x43,
    0x57, 0xda, 0x06, 0x48, 0x3b, 0xd7, 0x46, 0xbf, 0xe8, 0xd2, 0x2d, 0xa2,
    0x30, 0x33, 0xdd, 0xb0, 0x01, 0xc1, 0xcb, 0xc8, 0x07, 0x5c, 0xac, 0xe2,
    0x99, 0x2e, 0x39, 0xf3, 0xbf, 0x45, 0x2c, 0xfe, 0x26, 0x1e, 0xed, 0x31,
    0x2b, 0xd1, 0x1b, 0xca, 0x3e, 0xa9, 0x10, 0xc5, 0xeb, 0x83, 0x3f, 0xc1,
    0x26, 0xdf, 0xb2, 0xf1, 0x03, 0xfa, 0xcf, 0x04, 0xe1, 0x36, 0xdf, 0x3a,
    0xe9, 0xd3, 0x20, 0x3f, 0x07, 0x60, 0xf9, 0x35, 0xb0, 0x7f, 0xd0, 0x25,
    0xfe, 0x4a, 0x03, 0xa4, 0x04, 0xf3, 0x08, 0x00, 0x42, 0xd1, 0x0e, 0xe7,
    0x06, 0xff, 0x12, 0xa0, 0xdd, 0x9e, 0xe1, 0xed, 0x1e, 0x50, 0x9c, 0xec,
    0x98, 0xaf, 0x08, 0xf6, 0xf0, 0x20, 0xed, 0xea, 0x37, 0x76, 0x30, 0xb8,
    0x2b, 0x46, 0xcf, 0xa2, 0x25, 0xfc, 0x02, 0xea, 0x30, 0xe7, 0xc4, 0x1c,
    0xfe, 0x15, 0x24, 0x0b, 0xf3, 0xbf, 0xba, 0x04, 0xe0, 0x1b, 0xdd, 0xd5,
    0x01, 0xe1, 0xd3, 0xeb, 0xc5, 0x06, 0xdf, 0xea, 0xf5, 0xf6, 0x17, 0x13,
    0x0b, 0xcf, 0x36, 0xe4, 0x20, 0xef, 0x25, 0x27, 0x07, 0xe4, 0xbf, 0xbe,
    0x10, 0x00, 0x24, 0x0f, 0xc7, 0x2a, 0xfa, 0x0d, 0xd4, 0x40, 0xc2, 0x06,
    0x2b, 0x27, 0xd0, 0x1f, 0xe1, 0xb3, 0x0b, 0x3c, 0x20, 0xee, 0x16, 0xd0,
    0x12, 0x15, 0xc5, 0x07, 0x0f, 0xb6, 0x24, 0xe3, 0x31, 0x81, 0xef, 0xd6,
    0x3e, 0x18, 0x1d, 0x04, 0xce, 0x2b, 0xde, 0xfb, 0x01, 0xfc, 0xef, 0x02,
    0xe7, 0xf1, 0x33, 0x0d, 0x02, 0xd7, 0xfe, 0x1e, 0x2c, 0xe4, 0xd1, 0x1e,
    0xf5, 0x2e, 0x2c, 0x05, 0x39, 0x00, 0xf7, 0x9c, 0xf2, 0x88, 0xf4, 0xc8,
    0x24, 0x55, 0x45, 0xd3, 0x1f, 0xd3, 0xa8, 0xf5, 0xbe, 0xf3, 0xc8, 0x39,
    0xfd, 0x16, 0xd7, 0x12, 0xd0, 0x1e, 0x3b, 0x08, 0xd5, 0xf4, 0x7f, 0x4e,
    0xe3, 0x05, 0x41, 0x0e, 0x0a, 0x9a, 0x29, 0x00, 0xd4, 0x10, 0xaf, 0xde,
    0x17, 0xb2, 0x48, 0x3e, 0xa7, 0xb1, 0xd0, 0x67, 0x43, 0x50, 0xd1, 0xd9,
    0xcc, 0xd8, 0xfc, 0x2d, 0x44, 0x29, 0xf0, 0x61, 0x04, 0x42, 0x7c, 0xf4,
    0xca, 0xdd, 0xe3, 0xaf, 0x51, 0xa3, 0x22, 0x95, 0x31, 0xc9, 0xd6, 0xd0,
    0xb1, 0x47, 0xb6, 0xca, 0x0f, 0x03, 0xbd, 0x3c, 0x29, 0x77, 0xe4, 0x48,
    0xf5, 0xdb, 0x01, 0x01, 0xe2, 0x16, 0xc2, 0x42, 0x43, 0x00, 0x75, 0x5a,
    0x35, 0xc1, 0x25, 0xf4, 0x81, 0xc1, 0xdc, 0xe0, 0x02, 0x08, 0xee, 0x18,
    0xf6, 0xaa, 0xe1, 0x1b, 0xff, 0x12, 0xcf, 0x02, 0xef, 0x18, 0x10, 0x12,
    0xc0, 0xbc, 0xe1, 0x0f, 0x14, 0x4a, 0x19, 0x0e, 0xfe, 0x23, 0x24, 0x28,
    0x1c, 0xe1, 0x0a, 0x27, 0x95, 0xbd, 0xaa, 0xe9, 0xc4, 0x47, 0x20, 0x0a,
    0xc9, 0x8f, 0x29, 0x32, 0xdd, 0x22, 0xbd, 0xea, 0xd0, 0x0d, 0x04, 0x36,
    0xaf, 0xc3, 0xf3, 0xcd, 0xe6, 0xff, 0x17, 0xe6, 0xec, 0x42, 0x15, 0x3c,
    0x1d, 0x0c, 0x23, 0xda, 0xa6, 0xfc, 0xbf, 0xff, 0xaf, 0x0a, 0xf7, 0xdc,
    0xc7, 0x9c, 0x17, 0xde, 0x10, 0xfa, 0x09, 0x0f, 0x0d, 0x14, 0xee, 0x31,
    0xfa, 0x14, 0xca, 0xef, 0xd7, 0x47, 0xf4, 0xf8, 0xf0, 0x3e, 0x19, 0x0a,
    0x1a, 0x1d, 0xf5, 0x06, 0x25, 0xd7, 0xe5, 0x0b, 0xf2, 0x81, 0x0e, 0x33,
    0x46, 0x42, 0xed, 0x58, 0x05, 0x26, 0xe8, 0x3e, 0x30, 0x3f, 0xd8, 0x18,
    0x85, 0x02, 0x31, 0x64, 0x0b, 0x46, 0xfa, 0x47, 0x17, 0x53, 0x37, 0xa1,
    0x5e, 0x3e, 0x01, 0xdc, 0xb7, 0xe5, 0x72, 0xce, 0x60, 0x8d, 0x0f, 0xc1,
    0xec, 0x58, 0xd3, 0x32, 0x9d, 0x8a, 0xbc, 0x3c, 0x1d, 0xfa, 0xad, 0x4d,
    0x87, 0x4e, 0xad, 0x0d, 0xbe, 0xcc, 0xcc, 0x07, 0xef, 0x1a, 0xab, 0xfd,
    0xef, 0x53, 0x03, 0x09, 0xd2, 0xea, 0x6a, 0x32, 0xf7, 0xcb, 0xf7, 0x00,
    0x0b, 0x77, 0x10, 0x99, 0xdd, 0x86, 0x04, 0x37, 0x9c, 0xec, 0xad, 0x24,
    0x33, 0xe6, 0xfa, 0x03, 0xe7, 0x3d, 0x70, 0x52, 0xb4, 0xeb, 0x24, 0xf3,
    0x27, 0xcb, 0x8f, 0xc2, 0xd5, 0x38, 0x05, 0xcc, 0x0b, 0x1d, 0x39, 0x18,
    0x9c, 0xaf, 0xc8, 0x0d, 0xcc, 0xd8, 0x2d, 0xbd, 0x29, 0xed, 0xcc, 0xf0,
    0x33, 0x1d, 0xf9, 0x31, 0x0f, 0x04, 0x30, 0xe5, 0xfc, 0xf3, 0x15, 0x34,
    0xde, 0xb7, 0xb4, 0x27, 0xe9, 0xf5, 0x8f, 0x37, 0x10, 0x1e, 0x2c, 0xc7,
    0x81, 0xc7, 0x13, 0xe2, 0x3e, 0xc5, 0xfe, 0xe0, 0xe8, 0x27, 0x2a, 0x1e,
    0xf6, 0x11, 0x31, 0x23, 0x10, 0x33, 0x00, 0xd6, 0xdb, 0x50, 0x01, 0xfd,
    0xdc, 0xd8, 0xcd, 0xbd, 0xa6, 0xf2, 0xf1, 0xf4, 0xb7, 0x2a, 0xe3, 0xd2,
    0xe6, 0xab, 0xfd, 0xbe, 0x28, 0x38, 0x32, 0xa8, 0xfe, 0xec, 0x3d, 0xb7,
    0x25, 0xf2, 0xda, 0x1d, 0xd4, 0x3f, 0x17, 0xe2, 0xd1, 0x1a, 0x1b, 0x04,
    0x2f, 0xf7, 0x0e, 0xfc, 0xf3, 0x31, 0xef, 0xfa, 0xc6, 0xfb, 0x25, 0x01,
    0x40, 0xe2, 0x13, 0x0f, 0x1d, 0x27, 0xfb, 0x16, 0x1c, 0xe6, 0xa3, 0xa6,
    0x28, 0x09, 0x30, 0x30, 0x10, 0x05, 0xe2, 0xff, 0xc7, 0x4b, 0x24, 0x24,
    0x42, 0x64, 0xfd, 0x16, 0xf6, 0x4c, 0x19, 0xdc, 0xd8, 0xf7, 0xfb, 0x1f,
    0x22, 0x20, 0xbe, 0xd8, 0xa6, 0x1e, 0x90, 0x07, 0x0f, 0x02, 0xb8, 0xba,
    0xc6, 0x39, 0xdc, 0xeb, 0x01, 0x1d, 0xe1, 0xe1, 0xd1, 0x0a, 0xbb, 0xaf,
    0xe7, 0x20, 0x21, 0x27, 0x00, 0xf2, 0x26, 0x1e, 0xdc, 0xf6, 0x0d, 0xe1,
    0x09, 0x23, 0xf6, 0x09, 0xd2, 0xaa, 0x97, 0x26, 0x2f, 0xbd, 0xc3, 0xd8,
    0xb3, 0x7f, 0x12, 0x02, 0x29, 0x0e, 0xe4, 0x05, 0x4d, 0x3d, 0xf0, 0xd1,
    0x14, 0x34, 0xe6, 0xfe, 0x1a, 0xed, 0x48, 0x43, 0x21, 0xca, 0xcd, 0xd1,
    0x66, 0x34, 0xad, 0x92, 0xa4, 0x90, 0xfc, 0xe7, 0x0a, 0x50, 0x02, 0x05,
    0xe6, 0x21, 0xe8, 0x59, 0x15, 0xea, 0xc8, 0x74, 0xcc, 0x19, 0xea, 0xd8,
    0xcb, 0xf0, 0xd7, 0x28, 0x5b, 0xde, 0xc8, 0x9c, 0xdb, 0xbe, 0xb0, 0xcc,
    0x4a, 0x46, 0xe0, 0xad, 0x0d, 0xa3, 0x2a, 0x55, 0xfa, 0x4d, 0xd4, 0x27,
    0x9e, 0xe8, 0xc1, 0x46, 0xd4, 0xce, 0x26, 0xf0, 0xfb, 0x72, 0x2d, 0xd4,
    0x0e, 0xeb, 0x91, 0xaa, 0x02, 0xcd, 0x5e, 0xc6, 0xdb, 0x97, 0xbf, 0xb1,
    0x27, 0x76, 0x2a, 0x17, 0x2b, 0xe1, 0x2c, 0x17, 0xe3, 0xe0, 0xbd, 0xd8,
    0x95, 0xde, 0xe6, 0x3b, 0xf6, 0xda, 0x49, 0x59, 0xcf, 0x2d, 0xdc, 0x14,
    0x3e, 0x57, 0x81, 0xbc, 0xc1, 0x1c, 0x20, 0x43, 0x30, 0x1b, 0xc6, 0x16,
    0xa1, 0xf5, 0x58, 0x28, 0xb7, 0xee, 0xe1, 0x0c, 0xe6, 0x61, 0x40, 0xa4,
    0x2b, 0x2f, 0xdb, 0x1f, 0x4f, 0x22, 0xe0, 0xf4, 0xed, 0xd1, 0x14, 0xa5,
    0x46, 0x2f, 0x43, 0x03, 0xb2, 0xad, 0x35, 0x6b, 0xc6, 0x4c, 0xc1, 0x50,
    0x32, 0x2e, 0xd5, 0xda, 0x34, 0xc9, 0xd7, 0x1a, 0x54, 0x07, 0xe1, 0x9c,
    0xd6, 0xb1, 0xe6, 0xb7, 0x39, 0x2d, 0x52, 0xda, 0x0f, 0xc9, 0xfb, 0x9c,
    0x04, 0x45, 0xb5, 0x2b, 0xc7, 0x3b, 0xd7, 0x3c, 0x0d, 0x28, 0xd6, 0xe2,
    0x02, 0x36, 0xfa, 0x61, 0xef, 0xbd, 0xc8, 0x2a, 0x11, 0x14, 0x37, 0xdc,
    0xf3, 0x59, 0xa0, 0xc7, 0x49, 0x32, 0x3d, 0xd6, 0x2f, 0x81, 0x3e, 0xe7,
    0xf5, 0xcc, 0x01, 0xc0, 0x4d, 0x2b, 0xd0, 0xae, 0x44, 0xa5, 0x1b, 0xe4,
    0x5d, 0x1d, 0x35, 0xb4, 0xdf, 0x3e, 0xd3, 0x15, 0x98, 0x26, 0xa4, 0xf9,
    0xeb, 0xbf, 0x01, 0x3d, 0xf2, 0xe3, 0xf2, 0x6c, 0xa8, 0x03, 0xa5, 0x1b,
    0xb8, 0xfe, 0x4d, 0x45, 0x54, 0xc0, 0x36, 0xc4, 0x33, 0xed, 0x06, 0x99,
    0xbc, 0x4a, 0x3e, 0xab, 0x32, 0xf0, 0x15, 0x3f, 0x18, 0x04, 0xa6, 0x9a,
    0xec, 0xa0, 0x24, 0xe5, 0xfc, 0x00, 0x9a, 0x28, 0x0c, 0x40, 0xfe, 0x35,
    0xd0, 0x2d, 0xe3, 0xbd, 0xf3, 0x81, 0x07, 0x29, 0x49, 0xba, 0x19, 0xc9,
    0x4a, 0x28, 0xc5, 0xc7, 0x92, 0x09, 0x49, 0xba, 0xfa, 0x41, 0xea, 0xe0,
    0x00, 0x0c, 0xf6, 0x22, 0xa8, 0x1e, 0x0e, 0x47, 0xaf, 0x75, 0xa3, 0xd9,
    0x2b, 0x97, 0xfd, 0x31, 0x3a, 0xd5, 0xff, 0xff, 0x04, 0x00, 0x00, 0x00,
    0x60, 0x00, 0x00, 0x00, 0x7e, 0xfa, 0xff, 0xff, 0x53, 0x00, 0x00, 0x00,
    0xfd, 0xff, 0xff, 0xff, 0xd6, 0x00, 0x00, 0x00, 0xae, 0xf3, 0xff, 0xff,
    0x8d, 0xfd, 0xff, 0xff, 0xed, 0x05, 0x00, 0x00, 0x8d, 0xf2, 0xff, 0xff,
    0x59, 0xfc, 0xff, 0xff, 0x08, 0x08, 0x00, 0x00, 0xea, 0xfd, 0xff, 0xff,
    0xd6, 0x00, 0x00, 0x00, 0x02, 0x05, 0x00, 0x00, 0x7e, 0xfd, 0xff, 0xff,
    0x19, 0x00, 0x00, 0x00, 0xc2, 0xff, 0xff, 0xff, 0xed, 0xfc, 0xff, 0xff,
    0xd4, 0xff, 0xff, 0xff, 0x5d, 0xfe, 0xff, 0xff, 0x74, 0xfa, 0xff, 0xff,
    0x27, 0x10, 0x00, 0x00, 0x56, 0x00, 0x00, 0x00, 0x54, 0xfe, 0xff, 0xff,
    0x01, 0x02, 0x00, 0x00, 0xa6, 0xd5, 0xff, 0xff, 0x04, 0x00, 0x00, 0x00,
    0xc0, 0x21, 0x00, 0x00, 0x0f, 0x2b, 0x17, 0x48, 0x46, 0xd4, 0x1e, 0x13,
    0x07, 0xb3, 0xa6, 0xee, 0x04, 0x1b, 0xbe, 0xcb, 0x21, 0x6a, 0x1c, 0x18,
    0xf1, 0xb1, 0x10, 0x02, 0xe7, 0x0c, 0x15, 0xf3, 0x19, 0x15, 0x0a, 0xe5,
    0x04, 0xad, 0xe7, 0xc1, 0x0c, 0x24, 0xf9, 0x1f, 0x1b, 0x19, 0xe7, 0x31,
    0xa3, 0x09, 0xcd, 0xeb, 0xf4, 0x47, 0x14, 0x07, 0xfc, 0x1c, 0x26, 0x29,
    0x43, 0xd6, 0x13, 0xdc, 0xe4, 0x60, 0x0b, 0xe7, 0x11, 0x7f, 0xe1, 0x69,
    0xb7, 0xb8, 0x40, 0xe3, 0x31, 0x09, 0xfb, 0x50, 0x30, 0xf1, 0xdf, 0xdb,
    0xf9, 0xba, 0x88, 0xd4, 0xef, 0x19, 0xf0, 0xb6, 0x20, 0x55, 0xcd, 0x32,
    0xf4, 0xdf, 0xf5, 0xf7, 0x0d, 0x49, 0x1d, 0x18, 0x55, 0xe1, 0x21, 0x21,
    0xef, 0xf5, 0x0d, 0x10, 0x13, 0x18, 0x36, 0x13, 0x00, 0x2e, 0xfc, 0x11,
    0xbd, 0xe0, 0xe6, 0xf6, 0x2e, 0x3e, 0x1a, 0xe4, 0x08, 0x05, 0x01, 0x2e,
    0x21, 0x06, 0x14, 0xfc, 0xb6, 0x20, 0xcb, 0xb3, 0xeb, 0x4f, 0x0b, 0x27,
    0xf5, 0xc2, 0x39, 0xe7, 0x2b, 0x45, 0xff, 0x57, 0x23, 0xdd, 0xf7, 0x0f,
    0xd1, 0xb2, 0x9d, 0x06, 0xee, 0x10, 0xe6, 0xed, 0x1b, 0x49, 0x18, 0x4c,
    0xff, 0xf0, 0x12, 0xca, 0xf6, 0x05, 0x1d, 0x20, 0x1a, 0xfa, 0xf9, 0x33,
    0x22, 0xf1, 0xdd, 0xfb, 0xcd, 0xf9, 0x1a, 0x37, 0x1d, 0x4b, 0xfc, 0x31,
    0xa3, 0xfb, 0xb1, 0xda, 0x0b, 0x62, 0x39, 0x1a, 0x4b, 0x04, 0x51, 0xf9,
    0x01, 0xcc, 0xfb, 0x12, 0x01, 0x49, 0x07, 0xc8, 0xe0, 0x55, 0xfc, 0x35,
    0xca, 0xec, 0x38, 0xe3, 0xd6, 0x0f, 0x39, 0xed, 0xe0, 0xf8, 0x31, 0xf3,
    0x0a, 0x11, 0xd4, 0x12, 0x5e, 0x07, 0xf6, 0x3b, 0xf3, 0x24, 0xee, 0x39,
    0x09, 0xfa, 0xb8, 0xe3, 0xe5, 0x41, 0x16, 0x39, 0xef, 0x24, 0x40, 0x2e,
    0xdf, 0xfb, 0xe8, 0x0f, 0x5b, 0x28, 0xf7, 0xba, 0x21, 0x52, 0xdb, 0x0b,
    0xbf, 0xcd, 0x0d, 0xff, 0xfd, 0x08, 0x1c, 0x08, 0x01, 0x24, 0x62, 0xd8,
    0x57, 0x34, 0xeb, 0xdb, 0x27, 0xf9, 0xe8, 0x0f, 0x05, 0xfc, 0xb4, 0x1e,
    0x1d, 0xfa, 0x29, 0x41, 0x23, 0x3c, 0xd4, 0xd9, 0x54, 0xfa, 0x4b, 0x21,
    0xd7, 0x2f, 0x81, 0x15, 0x6b, 0x1b, 0xd4, 0x2b, 0x0f, 0x38, 0xce, 0xf2,
    0xf6, 0xdb, 0x9f, 0xf5, 0x34, 0x00, 0xe8, 0x38, 0xff, 0x21, 0x11, 0xee,
    0xdf, 0x03, 0x2b, 0x09, 0x52, 0x39, 0xde, 0xc2, 0xf5, 0x3a, 0xaf, 0xec,
    0x1e, 0xb0, 0xde, 0xe2, 0xc9, 0x01, 0xd0, 0xf1, 0xd2, 0x0b, 0x4b, 0x4d,
    0x17, 0xdc, 0xcc, 0x03, 0xbf, 0x3d, 0xcf, 0x12, 0xda, 0x19, 0xee, 0x0e,
    0x10, 0xb7, 0x10, 0x23, 0xff, 0xde, 0x15, 0x0f, 0x62, 0xfd, 0x50, 0xc6,
    0xe2, 0xf7, 0x8f, 0xe3, 0x72, 0x2b, 0xdc, 0xd8, 0x10, 0x47, 0x12, 0x24,
    0x2a, 0xe1, 0x97, 0xd1, 0xc4, 0x29, 0x1d, 0x26, 0x04, 0xc4, 0x40, 0x3d,
    0x46, 0xcb, 0xbd, 0x1c, 0xfe, 0xfe, 0x09, 0xc3, 0x12, 0x62, 0xd0, 0x1c,
    0xf3, 0x00, 0xcd, 0x24, 0x0f, 0x22, 0xe2, 0xea, 0xda, 0x07, 0x3e, 0x02,
    0xfd, 0x24, 0xed, 0x29, 0xbe, 0x09, 0xc3, 0x41, 0x01, 0xea, 0xdf, 0x52,
    0x24, 0xc0, 0xe1, 0xe9, 0xd8, 0xe6, 0xe5, 0x0c, 0x24, 0x2b, 0x0c, 0xf2,
    0x17, 0xd0, 0xb4, 0x2a, 0x35, 0x30, 0xd5, 0xce, 0xf2, 0x2b, 0xaa, 0xf0,
    0x0c, 0x06, 0xa1, 0x17, 0x04, 0x1e, 0x0c, 0xe7, 0xc9, 0xe2, 0x66, 0xf5,
    0x09, 0x4f, 0x0e, 0x39, 0x44, 0x49, 0xc2, 0x31, 0xfe, 0xff, 0x0e, 0x1a,
    0x28, 0xbd, 0xcb, 0x2b, 0xd1, 0x33, 0xfa, 0x2d, 0x8d, 0xf8, 0x0b, 0x31,
    0x19, 0x25, 0xef, 0x0b, 0xf9, 0x1a, 0x17, 0xfe, 0xf5, 0x12, 0x0c, 0xf1,
    0x07, 0x02, 0xea, 0x11, 0xc3, 0xfd, 0x18, 0x41, 0x29, 0xed, 0xf7, 0x16,
    0x0f, 0xd9, 0xb0, 0x4c, 0x1f, 0xd6, 0xe7, 0x3b, 0xdc, 0x2d, 0xe3, 0x04,
    0x32, 0xb5, 0x9e, 0x0f, 0x26, 0xe7, 0xeb, 0x20, 0xbb, 0x28, 0x14, 0xc0,
    0xf1, 0xe5, 0xf3, 0xef, 0x1d, 0xdf, 0xdc, 0xda, 0xdf, 0x20, 0x2a, 0xf2,
    0x25, 0xe2, 0xb3, 0x00, 0xf3, 0x12, 0xe6, 0x26, 0xf2, 0xe6, 0x44, 0xf7,
    0x3d, 0x2b, 0x09, 0xf2, 0x17, 0x06, 0xa2, 0xe0, 0xd2, 0x1f, 0x0d, 0xfd,
    0xf7, 0x0a, 0xba, 0xc4, 0xbe, 0x03, 0xf9, 0xf9, 0xd3, 0x19, 0xe5, 0x0a,
    0x54, 0xed, 0xf4, 0x42, 0x3e, 0xe1, 0xb9, 0xf0, 0x31, 0xff, 0x05, 0x30,
    0x01, 0xa5, 0xad, 0xe3, 0xe3, 0x2e, 0xee, 0x0b, 0xc6, 0x2e, 0x2f, 0xe9,
    0xf7, 0x51, 0x38, 0x13, 0x0f, 0xcd, 0xa9, 0xc6, 0xc2, 0x4c, 0xdc, 0xf9,
    0x39, 0xb8, 0x15, 0x38, 0x28, 0x01, 0xe2, 0xd9, 0x84, 0x14, 0x7f, 0xb9,
    0xed, 0x41, 0xe3, 0x3f, 0x2e, 0x0d, 0xfd, 0xf4, 0x00, 0x33, 0x2a, 0x01,
    0x32, 0x98, 0x27, 0x3d, 0x30, 0x1e, 0xf6, 0xca, 0xd4, 0xd2, 0x15, 0x01,
    0x06, 0x14, 0x15, 0x18, 0x81, 0xed, 0x1c, 0x04, 0x2e, 0xe2, 0x30, 0xdb,
    0xdb, 0x1c, 0x57, 0x19, 0x18, 0x0e, 0xf0, 0x25, 0xfe, 0x11, 0x10, 0x37,
    0xf4, 0x1d, 0x28, 0xe9, 0xbb, 0x1f, 0x1c, 0x10, 0xfc, 0xf8, 0x2f, 0xfd,
    0xff, 0xfe, 0x28, 0xf9, 0x16, 0x11, 0x14, 0xf5, 0x0c, 0xdd, 0xf2, 0xe9,
    0x0d, 0xe6, 0xf6, 0xf0, 0x21, 0x2e, 0x12, 0xf8, 0x17, 0xc2, 0x0d, 0x01,
    0x1e, 0x1f, 0x1a, 0x1e, 0x0f, 0x00, 0xe9, 0x14, 0x00, 0xd8, 0x0d, 0xe6,
    0xd9, 0x17, 0xeb, 0xde, 0xd4, 0x06, 0x17, 0x09, 0x33, 0xe3, 0xe7, 0xdd,
    0xee, 0xff, 0x14, 0xee, 0xe4, 0x0d, 0xe9, 0xdb, 0x29, 0x22, 0xe5, 0x07,
    0xe1, 0x18, 0x22, 0xf5, 0xc2, 0x08, 0x37, 0xe9, 0x16, 0xbc, 0x1e, 0x15,
    0x03, 0x1f, 0x41, 0xde, 0xfc, 0x16, 0xee, 0xec, 0x14, 0x21, 0xe9, 0x09,
    0xeb, 0x1c, 0x36, 0x0e, 0xdf, 0xdd, 0x19, 0x19, 0x09, 0xfb, 0xf0, 0xf3,
    0xf0, 0x29, 0x0e, 0x13, 0xea, 0xfb, 0x15, 0xfb, 0x07, 0xee, 0x09, 0xf8,
    0x20, 0xdb, 0xeb, 0x23, 0xcc, 0xd2, 0x17, 0xf9, 0x26, 0xbe, 0x00, 0xae,
    0x0b, 0x22, 0x55, 0x26, 0x18, 0xfb, 0x2a, 0x1b, 0xf7, 0x34, 0x0f, 0x0e,
    0x1b, 0x04, 0x06, 0xe5, 0xc4, 0x1b, 0xff, 0x1d, 0x24, 0xe4, 0x2e, 0x19,
    0x20, 0xfe, 0x43, 0xf1, 0x2a, 0xd5, 0xeb, 0xf2, 0x29, 0xed, 0x05, 0x21,
    0x11, 0x2e, 0xf4, 0x1e, 0x18, 0xf5, 0x2a, 0x12, 0x0a, 0xd5, 0xec, 0xfb,
    0xfe, 0x21, 0xfa, 0x0f, 0x24, 0x15, 0x2a, 0xb8, 0xd3, 0xc6, 0xbc, 0x18,
    0x2f, 0xd8, 0x22, 0xc5, 0xda, 0xdf, 0x06, 0x3c, 0x15, 0x08, 0x50, 0x07,
    0x41, 0x13, 0x3e, 0x0b, 0xee, 0xcd, 0x26, 0x40, 0xdf, 0x26, 0xcb, 0x18,
    0x1d, 0xd3, 0x08, 0x20, 0xce, 0xd1, 0x48, 0x23, 0x2d, 0xff, 0x0c, 0xb4,
    0x32, 0x54, 0xff, 0xf4, 0x34, 0xe2, 0x0f, 0xea, 0x0e, 0x26, 0x04, 0x20,
    0xfd, 0xe0, 0xe2, 0x11, 0x06, 0xec, 0x3f, 0x00, 0x0f, 0x1a, 0x3d, 0xd6,
    0x34, 0x4b, 0x2a, 0xcb, 0xee, 0x10, 0x2d, 0xcf, 0xdd, 0xde, 0x1f, 0x00,
    0x2a, 0x36, 0x3d, 0x2d, 0x81, 0x10, 0x13, 0x30, 0x0d, 0xb7, 0x0d, 0xf1,
    0xee, 0x2b, 0x78, 0x42, 0x04, 0xf9, 0xea, 0x44, 0x0e, 0x20, 0xde, 0x22,
    0xea, 0xf1, 0x0b, 0x31, 0xdb, 0xfb, 0x1d, 0x24, 0xf3, 0xe5, 0x41, 0xc3,
    0x39, 0xfb, 0x1c, 0x19, 0x42, 0x13, 0x2c, 0x4c, 0x0c, 0xe5, 0x11, 0x1c,
    0x04, 0xf5, 0xe0, 0xf0, 0x34, 0x03, 0xf5, 0xc6, 0x50, 0xcf, 0x30, 0x0c,
    0xc1, 0x23, 0x40, 0xdf, 0x2c, 0xee, 0xc4, 0xf2, 0xdd, 0xfe, 0x0e, 0xd8,
    0xfd, 0x2a, 0x5a, 0x36, 0xd2, 0xcf, 0xfe, 0x15, 0xf3, 0xed, 0x49, 0x05,
    0x29, 0x10, 0x7a, 0x1f, 0x2e, 0x02, 0x09, 0x25, 0x0a, 0x1e, 0xf4, 0xfa,
    0xc9, 0xff, 0x31, 0x36, 0xd0, 0x0b, 0x13, 0xf4, 0x2e, 0xf0, 0x1f, 0x28,
    0x17, 0x01, 0x4f, 0x20, 0x4d, 0xc8, 0xfb, 0xdf, 0x04, 0x0a, 0x92, 0x43,
    0xff, 0xda, 0x50, 0xdb, 0x0d, 0x4a, 0x17, 0xd6, 0x20, 0xea, 0x35, 0xff,
    0x09, 0x66, 0xf2, 0x3f, 0x37, 0x17, 0x0e, 0xf6, 0x3a, 0x2d, 0x1f, 0xf2,
    0xf6, 0x49, 0x54, 0x39, 0x35, 0x25, 0x04, 0xfc, 0x26, 0x4c, 0x08, 0x1e,
    0xc6, 0x3a, 0xf6, 0x32, 0x22, 0x19, 0xd1, 0xee, 0x36, 0x08, 0xe5, 0xc4,
    0xeb, 0x17, 0xfb, 0xe4, 0x37, 0x01, 0xed, 0x25, 0x0c, 0x22, 0x38, 0x23,
    0xe2, 0x09, 0xe9, 0x0c, 0xcb, 0xca, 0x05, 0x12, 0xed, 0xe4, 0x0b, 0xaa,
    0xf1, 0xc5, 0xf8, 0xd3, 0xca, 0x83, 0x3d, 0x20, 0xcd, 0xa3, 0xec, 0xfc,
    0x28, 0xd9, 0xde, 0x1d, 0xed, 0x2d, 0xeb, 0x18, 0x02, 0xfd, 0xfb, 0xf5,
    0x05, 0xef, 0x09, 0x39, 0x2d, 0xfb, 0x32, 0xf1, 0x13, 0x42, 0x06, 0x3c,
    0xe0, 0xec, 0xe2, 0x33, 0x43, 0xf1, 0xc9, 0x16, 0x0f, 0xfa, 0xf4, 0x10,
    0x1b, 0xf3, 0x2f, 0xf1, 0x1e, 0xeb, 0x35, 0x3a, 0x01, 0x0d, 0xf3, 0x4b,
    0xe4, 0x2e, 0x06, 0x20, 0xa1, 0xfe, 0xe8, 0xd9, 0x31, 0xd4, 0x2b, 0xe6,
    0x11, 0xcb, 0xf7, 0xce, 0xcf, 0x81, 0x44, 0x1d, 0xdf, 0xab, 0x22, 0xcf,
    0xea, 0x15, 0xc1, 0xf3, 0x2f, 0x22, 0xe6, 0xfb, 0x54, 0xec, 0x2c, 0xe6,
    0x20, 0x38, 0x48, 0x00, 0x37, 0x39, 0xe8, 0x2d, 0x24, 0x18, 0xd4, 0x2f,
    0x0e, 0x17, 0x08, 0x2f, 0xff, 0xf9, 0x15, 0x35, 0x3d, 0x15, 0x08, 0xc3,
    0xdc, 0x19, 0x04, 0xf1, 0x30, 0x03, 0x00, 0xed, 0x01, 0xf1, 0xfc, 0x19,
    0xdd, 0x1b, 0xf0, 0x34, 0xab, 0xea, 0x23, 0xea, 0xf8, 0x03, 0x05, 0xee,
    0x01, 0xbc, 0x0c, 0xd6, 0x19, 0x96, 0x42, 0x2b, 0xcf, 0xce, 0x29, 0xd0,
    0x18, 0xeb, 0xa8, 0xcc, 0x23, 0xfc, 0x0a, 0xfc, 0xbb, 0xf0, 0xda, 0x0a,
    0x02, 0x2e, 0x05, 0x14, 0xc0, 0x12, 0x37, 0x13, 0x29, 0xb5, 0xfd, 0x00,
    0xd3, 0x56, 0x35, 0x17, 0x2c, 0xfd, 0xfa, 0xc8, 0xef, 0xfc, 0xe6, 0x01,
    0x0a, 0xf2, 0x0d, 0x19, 0xc7, 0xd9, 0x4e, 0xe2, 0x16, 0xfc, 0x45, 0xd0,
    0xfd, 0x3c, 0x22, 0x00, 0x20, 0xf8, 0x29, 0xf7, 0x2b, 0xe4, 0xef, 0x3d,
    0x33, 0xfe, 0xf9, 0x36, 0xd8, 0x2a, 0x32, 0x20, 0xf7, 0x06, 0x05, 0x1f,
    0xe2, 0xf6, 0x32, 0x33, 0xf8, 0xd3, 0x1a, 0xfe, 0xbf, 0xf2, 0xf0, 0xdc,
    0xde, 0x28, 0x48, 0xee, 0xdb, 0xdb, 0x17, 0xf8, 0x07, 0xfa, 0xe1, 0xb6,
    0x2a, 0x27, 0x0a, 0x35, 0x26, 0xc0, 0x07, 0xc1, 0x1b, 0xda, 0x15, 0x07,
    0x0a, 0xd6, 0x3b, 0x18, 0x81, 0xf1, 0x10, 0x12, 0x12, 0xfb, 0x11, 0x8f,
    0xd4, 0x37, 0x63, 0xec, 0x09, 0x07, 0xce, 0xff, 0x1d, 0x0a, 0xbf, 0x10,
    0x36, 0xda, 0x44, 0x1d, 0xef, 0xe9, 0x1b, 0x09, 0x11, 0xd1, 0x2a, 0x0e,
    0xf7, 0x2c, 0x24, 0x2f, 0x3a, 0xdb, 0xe0, 0xfb, 0xe8, 0xd0, 0xd0, 0xe8,
    0xd4, 0x34, 0x29, 0x1c, 0xa6, 0xea, 0x3a, 0x24, 0x17, 0xe5, 0x11, 0xcd,
    0x11, 0x2f, 0x02, 0xff, 0x3b, 0xe0, 0xcd, 0xb4, 0x24, 0xfa, 0x0f, 0x12,
    0xe2, 0x1a, 0x08, 0x10, 0x84, 0x07, 0xfd, 0xca, 0x1c, 0x07, 0x02, 0xea,
    0xfd, 0x00, 0x0f, 0xf4, 0x36, 0x15, 0x19, 0x2a, 0x41, 0x04, 0xbc, 0x21,
    0xec, 0xf1, 0x47, 0xe3, 0xed, 0x3a, 0x38, 0x16, 0x07, 0xa8, 0x45, 0xbe,
    0xf3, 0x46, 0x43, 0x3b, 0x0b, 0x2c, 0x2b, 0x47, 0x18, 0x0f, 0x0d, 0xda,
    0x1b, 0xba, 0x91, 0x04, 0xdc, 0x24, 0xf2, 0xbd, 0x2d, 0x36, 0xd7, 0x06,
    0xeb, 0xa6, 0xe0, 0xd1, 0xe6, 0x40, 0x2e, 0x24, 0x32, 0xe5, 0xfe, 0xf6,
    0x24, 0xd9, 0xe0, 0xec, 0x4e, 0x32, 0xd0, 0xdd, 0x09, 0x2d, 0xd3, 0x60,
    0xb0, 0xc5, 0xd5, 0xe4, 0x0d, 0xfb, 0x02, 0xdc, 0x07, 0x1a, 0x06, 0x2c,
    0x02, 0xea, 0x0e, 0x0b, 0x35, 0x11, 0xff, 0xf3, 0x1d, 0x1d, 0xcf, 0x22,
    0x30, 0xe4, 0x14, 0x27, 0x0a, 0x23, 0x09, 0x12, 0x53, 0xe9, 0xf2, 0xdd,
    0xd9, 0xdc, 0xae, 0xde, 0xfd, 0x1b, 0xbf, 0xe0, 0x25, 0x46, 0xfc, 0x12,
    0xdb, 0xa7, 0xfd, 0xda, 0x13, 0x3c, 0x17, 0x0f, 0x17, 0x0c, 0x00, 0x30,
    0xf3, 0x0c, 0xde, 0xdb, 0x23, 0x40, 0xdb, 0xbb, 0xe7, 0x31, 0x03, 0x64,
    0xd7, 0xd1, 0xec, 0xd5, 0x0f, 0x15, 0x10, 0xfd, 0xf8, 0x37, 0x0b, 0xf5,
    0x33, 0xe8, 0xec, 0xfe, 0x03, 0x1e, 0xe8, 0xce, 0xda, 0x5f, 0xe6, 0x2f,
    0xfe, 0xcc, 0x3a, 0xfc, 0xf9, 0x34, 0xff, 0x0f, 0x39, 0x1b, 0xde, 0xfe,
    0xd9, 0x00, 0x81, 0xd0, 0x1e, 0x22, 0xba, 0x0d, 0xfb, 0x5a, 0xf8, 0x04,
    0xd2, 0x9a, 0xdd, 0xc7, 0x26, 0x22, 0x18, 0x1e, 0xff, 0xe8, 0x04, 0x1a,
    0x18, 0xf9, 0xf9, 0x14, 0x0e, 0x46, 0xe7, 0xc4, 0xf6, 0x5c, 0xf5, 0x18,
    0xe8, 0xb3, 0xe4, 0x05, 0x26, 0x1d, 0x0c, 0xf5, 0x22, 0x27, 0x34, 0x35,
    0x27, 0xef, 0xdc, 0x30, 0x39, 0x1e, 0xe4, 0x01, 0x1e, 0x26, 0xc8, 0x3c,
    0x0e, 0xc7, 0x2e, 0xf6, 0x0c, 0xe0, 0xeb, 0x17, 0x20, 0x12, 0x34, 0xd7,
    0xee, 0xef, 0xe4, 0xe6, 0x7f, 0x17, 0xf0, 0x0e, 0x00, 0x49, 0xf0, 0x18,
    0x14, 0xf9, 0xda, 0x1d, 0x26, 0x19, 0x22, 0xe8, 0x00, 0xe7, 0x3d, 0xfa,
    0xec, 0x24, 0xd2, 0x25, 0x25, 0xf9, 0xbe, 0x32, 0xf8, 0x4c, 0x18, 0x33,
    0x37, 0x05, 0xd9, 0x28, 0x19, 0x2a, 0x32, 0x1e, 0xe0, 0x14, 0x33, 0xf6,
    0x08, 0xed, 0xe5, 0xf6, 0x26, 0x12, 0xc0, 0x02, 0x09, 0x1b, 0xff, 0xfc,
    0x27, 0xe3, 0xf1, 0xfc, 0x21, 0x34, 0x35, 0xfa, 0xf9, 0x35, 0xe6, 0xd9,
    0x22, 0x10, 0x0a, 0xe4, 0x7d, 0x3b, 0xe9, 0x10, 0xd7, 0x21, 0x00, 0x28,
    0x40, 0xe9, 0xbc, 0xed, 0x11, 0x1e, 0x1c, 0x3b, 0x14, 0xf9, 0x09, 0xe4,
    0xeb, 0x1e, 0xcb, 0x2f, 0x1f, 0x34, 0x09, 0x09, 0x19, 0x32, 0xeb, 0x2f,
    0x1b, 0x03, 0xce, 0x2d, 0xeb, 0x0e, 0x21, 0xfd, 0xc7, 0x28, 0x56, 0xd1,
    0x2b, 0x17, 0xf7, 0xd4, 0x34, 0x36, 0xdf, 0xeb, 0x0b, 0x2a, 0xe0, 0x24,
    0xff, 0xce, 0x22, 0xe4, 0x17, 0x05, 0x03, 0x36, 0x34, 0x36, 0xf1, 0xcf,
    0xf5, 0x0b, 0xc1, 0x0c, 0x7a, 0x0d, 0x01, 0x3d, 0xe5, 0x1f, 0x0c, 0x35,
    0xf5, 0xd1, 0xe8, 0x2a, 0x05, 0x03, 0xee, 0xf2, 0xd4, 0x1e, 0x01, 0xcf,
    0x27, 0x29, 0xe2, 0x20, 0x4a, 0x03, 0xf6, 0xe7, 0x17, 0x45, 0xf9, 0x3c,
    0x11, 0xb9, 0x06, 0x2d, 0xe7, 0x02, 0x0d, 0x1e, 0xbd, 0xfc, 0x2d, 0xd5,
    0x16, 0x0d, 0x08, 0x07, 0x2a, 0x09, 0x08, 0x29, 0x0a, 0x4a, 0x12, 0x0c,
    0x1f, 0xda, 0xd3, 0x0f, 0x2a, 0xd6, 0x18, 0xff, 0x0c, 0xe7, 0xe4, 0xcb,
    0xd3, 0xed, 0x44, 0xcc, 0xbb, 0x1a, 0x3e, 0xcc, 0x37, 0x09, 0x1a, 0x0a,
    0xf3, 0x34, 0x1b, 0x18, 0xd8, 0xff, 0xfb, 0xe5, 0xce, 0x1d, 0xfd, 0x1f,
    0x1e, 0x0a, 0xec, 0x06, 0xf8, 0xe2, 0x29, 0x0d, 0xf9, 0xe1, 0xe7, 0x0a,
    0x09, 0x0b, 0x0f, 0x22, 0xfa, 0xd5, 0xfc, 0x1c, 0x49, 0xf0, 0xfe, 0x15,
    0x22, 0xe2, 0x28, 0xde, 0xb9, 0x24, 0x21, 0xef, 0x29, 0xbc, 0x08, 0xcd,
    0x10, 0x1e, 0x0d, 0xf7, 0x4c, 0x16, 0xd8, 0xc1, 0x36, 0x1f, 0xe3, 0x23,
    0x1c, 0xee, 0x38, 0xd5, 0x9d, 0xec, 0x1e, 0x0e, 0x03, 0x30, 0x01, 0x15,
    0xfc, 0x53, 0x21, 0x0c, 0xfc, 0xf3, 0xf8, 0xff, 0xf5, 0xe2, 0xd8, 0xf7,
    0x2b, 0x13, 0xda, 0x1a, 0x02, 0xdc, 0xea, 0xef, 0x00, 0x9f, 0xdd, 0x16,
    0xd5, 0x2e, 0xff, 0x07, 0x0e, 0x12, 0x03, 0x04, 0x1d, 0x21, 0xe5, 0xec,
    0xdd, 0xd7, 0x60, 0x12, 0xb2, 0x1a, 0x5e, 0xf1, 0x3b, 0x08, 0xf0, 0xd7,
    0xfa, 0x4c, 0x29, 0xff, 0x1f, 0xf1, 0x1b, 0x14, 0x15, 0xd5, 0x07, 0xea,
    0xe8, 0x31, 0x0e, 0xe8, 0x84, 0xeb, 0x23, 0xf7, 0x12, 0xef, 0x22, 0x0c,
    0x16, 0x03, 0x39, 0xe6, 0x01, 0xcd, 0xcd, 0x1a, 0x09, 0xe8, 0xef, 0x0d,
    0x04, 0x0d, 0xf9, 0x15, 0x0b, 0xd5, 0x00, 0xcf, 0xd9, 0xd1, 0x0d, 0x17,
    0xf6, 0xe2, 0xe2, 0x09, 0x13, 0xe8, 0x0b, 0xff, 0x08, 0xec, 0xe4, 0xf8,
    0xec, 0xe8, 0x69, 0x18, 0x81, 0x10, 0x1c, 0xfd, 0x2b, 0xf8, 0xe0, 0xbc,
    0xc5, 0x34, 0x34, 0xef, 0xe2, 0x1f, 0xe1, 0x04, 0xf1, 0x32, 0x15, 0x26,
    0xf1, 0xf9, 0xdd, 0x22, 0x7f, 0x0d, 0xc6, 0x1e, 0xd6, 0x4a, 0xe9, 0xf1,
    0x1c, 0x03, 0xe6, 0xeb, 0xef, 0x19, 0xd5, 0xd9, 0xa6, 0xef, 0x24, 0xf3,
    0xec, 0x37, 0x19, 0x13, 0x5d, 0x1c, 0xc9, 0x20, 0xe0, 0x24, 0xb6, 0x09,
    0x2b, 0xb9, 0xd8, 0xec, 0x07, 0xf1, 0x20, 0xf5, 0xd5, 0x2f, 0x31, 0x03,
    0xeb, 0xf0, 0xf3, 0xe6, 0xf8, 0xd9, 0xc6, 0xe0, 0x11, 0xd9, 0xcf, 0xc3,
    0x2c, 0xf3, 0x13, 0x39, 0x11, 0xe2, 0xd9, 0x3f, 0xec, 0x3e, 0x03, 0xe1,
    0xee, 0x23, 0xfd, 0x06, 0x4f, 0x0b, 0xaf, 0xd2, 0xff, 0x3f, 0xd9, 0x3c,
    0x35, 0xe5, 0xa6, 0x2c, 0x07, 0x37, 0x22, 0xf8, 0xb8, 0x1c, 0x33, 0xfc,
    0x08, 0xe4, 0x1e, 0x00, 0x64, 0xcc, 0xb3, 0x04, 0x0b, 0x1e, 0x09, 0xf8,
    0x28, 0xe1, 0xe6, 0x2a, 0xea, 0xfe, 0x0d, 0xe6, 0xad, 0x10, 0x52, 0xcb,
    0x28, 0xfe, 0xdf, 0x22, 0x2c, 0xb3, 0xe2, 0xeb, 0xdc, 0xfa, 0xe4, 0xaf,
    0x2a, 0xde, 0xfa, 0xf3, 0xd1, 0xd8, 0x26, 0xfc, 0x1b, 0x1b, 0xfc, 0xf3,
    0x27, 0xf0, 0xde, 0xef, 0x3d, 0xdf, 0xbc, 0xeb, 0x23, 0xf7, 0xd6, 0x36,
    0x12, 0xdf, 0x8d, 0x0b, 0xe7, 0x2e, 0xeb, 0x16, 0xe4, 0x25, 0x1f, 0x1b,
    0x05, 0x1d, 0xf7, 0x1c, 0x34, 0x2a, 0xab, 0x09, 0x0a, 0x02, 0xe0, 0xd4,
    0xd7, 0xce, 0xef, 0xd8, 0xbd, 0xdd, 0x26, 0x05, 0x9e, 0xda, 0x2f, 0x0e,
    0x0f, 0x04, 0x10, 0x23, 0x3a, 0xcd, 0xcf, 0xeb, 0xdb, 0xf5, 0xd5, 0xda,
    0x12, 0xe1, 0xe2, 0x06, 0xeb, 0xf8, 0x28, 0x2e, 0x55, 0xcd, 0x03, 0xf5,
    0xda, 0xb1, 0x9f, 0xe9, 0x21, 0x3f, 0xfa, 0x0e, 0x20, 0x5a, 0x06, 0x06,
    0xd3, 0xb8, 0xd5, 0xbf, 0x1b, 0x2b, 0x25, 0x2b, 0x27, 0x28, 0xe6, 0xeb,
    0x23, 0x1c, 0xdf, 0xdb, 0x1e, 0x3a, 0xf9, 0x0a, 0x26, 0x60, 0xf3, 0x53,
    0xf0, 0xfa, 0x16, 0xd7, 0xf8, 0x13, 0x0f, 0xf2, 0x36, 0x13, 0x3d, 0x34,
    0x3c, 0xce, 0xd3, 0x15, 0xef, 0x1e, 0xc1, 0xc9, 0xea, 0x21, 0x08, 0x30,
    0xe1, 0xd9, 0x19, 0xf6, 0xe6, 0x03, 0x2b, 0x04, 0x30, 0xd2, 0x01, 0xd8,
    0xed, 0xb7, 0x81, 0x12, 0xf4, 0x05, 0xe2, 0xd4, 0x1c, 0x0a, 0xd3, 0x56,
    0x06, 0xe2, 0xfc, 0x04, 0xfb, 0x0d, 0xcd, 0xef, 0xff, 0xff, 0x01, 0xed,
    0x31, 0x28, 0xef, 0xda, 0x40, 0x21, 0xf7, 0xe2, 0xe7, 0x5b, 0x02, 0x3b,
    0xf7, 0xe2, 0xc3, 0xcd, 0xf0, 0x39, 0xea, 0xe1, 0x39, 0x25, 0x10, 0x43,
    0x06, 0x08, 0xcb, 0xf9, 0x2e, 0x44, 0xc7, 0xc8, 0xf1, 0x45, 0xf6, 0x4f,
    0xec, 0xef, 0x06, 0x20, 0x16, 0x2a, 0x18, 0x12, 0x3e, 0x0d, 0xf9, 0x12,
    0xe7, 0xd6, 0xb4, 0xfb, 0x19, 0xf6, 0xd0, 0x01, 0xd2, 0x4c, 0xc5, 0xfc,
    0x05, 0x95, 0xd2, 0xeb, 0xfa, 0xf7, 0x2b, 0xf0, 0x18, 0x0e, 0x01, 0x34,
    0x19, 0xd7, 0xb7, 0x07, 0x37, 0xf2, 0x04, 0x0e, 0xda, 0x4a, 0xdf, 0x57,
    0xae, 0xc8, 0x15, 0xdd, 0x05, 0xef, 0xe8, 0xd9, 0x26, 0xfb, 0x44, 0x34,
    0x37, 0x02, 0xcf, 0x40, 0xe1, 0x43, 0xb4, 0xed, 0x21, 0x2e, 0x07, 0x4d,
    0xf2, 0xc3, 0x33, 0xcd, 0x3d, 0xe4, 0xd3, 0xcb, 0xfb, 0x13, 0xed, 0x2b,
    0x17, 0x2c, 0x01, 0xdc, 0xef, 0xde, 0x2a, 0x03, 0x1f, 0xc3, 0x4a, 0xdf,
    0xf7, 0x0d, 0x55, 0xf2, 0x34, 0xc1, 0xfc, 0x09, 0x15, 0x2b, 0xbe, 0x23,
    0x23, 0x12, 0x24, 0x0b, 0xe6, 0xe4, 0x15, 0x08, 0x04, 0xca, 0x45, 0xfa,
    0x11, 0x2d, 0x35, 0xec, 0x02, 0xbd, 0x0a, 0xec, 0x31, 0x1f, 0xdb, 0x26,
    0xdc, 0xd6, 0x2f, 0x04, 0xe5, 0x20, 0x31, 0x09, 0x07, 0xce, 0x38, 0x0f,
    0xd6, 0x45, 0x15, 0xf0, 0x28, 0x0a, 0xfd, 0xf2, 0xd7, 0x0c, 0xdf, 0xe4,
    0xf2, 0x21, 0x00, 0x00, 0x02, 0xfb, 0x39, 0x01, 0xef, 0xb4, 0x04, 0x01,
    0xdc, 0x45, 0x48, 0x39, 0xeb, 0xdd, 0xfa, 0x22, 0x14, 0x14, 0xee, 0xe8,
    0x0a, 0xf3, 0x1d, 0x1e, 0xec, 0x01, 0xfd, 0x0d, 0x3e, 0xc4, 0x07, 0xf0,
    0xd3, 0x06, 0x1b, 0xde, 0x07, 0xed, 0xde, 0xfc, 0x44, 0xf5, 0xae, 0x08,
    0xff, 0x09, 0x2e, 0x1d, 0x23, 0xf4, 0x48, 0x1e, 0x11, 0xf4, 0x2f, 0xe6,
    0xe9, 0x44, 0x47, 0x1d, 0x22, 0xbe, 0x1f, 0xd1, 0xf6, 0xe8, 0x9a, 0x0e,
    0xf6, 0x1e, 0x41, 0xdb, 0xb7, 0xec, 0x41, 0xf4, 0xf6, 0xf6, 0x03, 0xf0,
    0x1e, 0x19, 0x51, 0xf0, 0x0e, 0xd7, 0x16, 0xff, 0xef, 0x13, 0xbb, 0x20,
    0x22, 0x23, 0x3a, 0x0c, 0xd2, 0x08, 0xfc, 0x05, 0x34, 0xba, 0x05, 0xde,
    0xd6, 0x54, 0x29, 0xe7, 0xf7, 0xe2, 0x0b, 0xf6, 0x07, 0xff, 0x81, 0xfd,
    0x24, 0x16, 0x34, 0xee, 0xf8, 0x08, 0x41, 0xf4, 0x07, 0xdd, 0x22, 0xd8,
    0xc4, 0x06, 0x01, 0xe5, 0xf5, 0x31, 0xeb, 0x20, 0x1b, 0x29, 0x05, 0x01,
    0xbe, 0xee, 0xf9, 0xed, 0xf8, 0xd0, 0x25, 0x45, 0x0b, 0xf5, 0x6d, 0xd1,
    0xee, 0x57, 0xf4, 0x33, 0xf1, 0xaa, 0xbe, 0xa3, 0xd1, 0x20, 0xf8, 0xcb,
    0x19, 0x23, 0x01, 0xd2, 0xc8, 0xae, 0x0d, 0x05, 0xca, 0x94, 0xef, 0xef,
    0xbf, 0xd3, 0xff, 0xf0, 0x3e, 0xb4, 0xf2, 0x2e, 0x72, 0xff, 0x17, 0x14,
    0xfc, 0xce, 0x14, 0x07, 0xe6, 0x41, 0x6a, 0x00, 0x36, 0xbf, 0xfd, 0x0b,
    0xe8, 0x60, 0x17, 0x05, 0x1b, 0x19, 0x20, 0x1a, 0x08, 0xf1, 0xe9, 0x26,
    0x0c, 0xe8, 0x39, 0x1d, 0xda, 0xe8, 0x3c, 0xe0, 0x52, 0x33, 0x0b, 0xc7,
    0x0b, 0x01, 0x40, 0xf3, 0x3d, 0xbf, 0xa9, 0xcf, 0xb6, 0xc9, 0xf5, 0xed,
    0x26, 0xea, 0x36, 0xd4, 0x0f, 0xf6, 0xed, 0xdc, 0xcb, 0x81, 0xed, 0xc8,
    0xc1, 0x26, 0x18, 0x07, 0x0b, 0x14, 0xea, 0x04, 0x31, 0x49, 0xc0, 0x33,
    0xf0, 0xe1, 0x20, 0xc9, 0xdb, 0x19, 0x3e, 0x44, 0x64, 0x16, 0x12, 0xc1,
    0x08, 0x1e, 0x30, 0x3c, 0xf4, 0xe4, 0x01, 0x21, 0xfc, 0xd6, 0x29, 0x09,
    0xf5, 0xe9, 0x0f, 0xb7, 0xa5, 0xe0, 0x3e, 0xe8, 0x32, 0x18, 0x58, 0xf3,
    0x29, 0x5f, 0x01, 0x0a, 0xee, 0x95, 0xf0, 0xea, 0xe8, 0xbe, 0xe2, 0xeb,
    0x28, 0x20, 0x25, 0x25, 0xec, 0xee, 0xdf, 0xe4, 0x20, 0xb1, 0xf2, 0xe8,
    0x0b, 0x17, 0x28, 0x2d, 0x38, 0xc0, 0xfc, 0xfd, 0x24, 0x0b, 0xd6, 0x04,
    0xe2, 0xe3, 0x41, 0x08, 0x96, 0x55, 0x73, 0x3c, 0x04, 0x13, 0x14, 0xec,
    0xaf, 0x42, 0x2f, 0x21, 0x1e, 0xcc, 0x03, 0x12, 0x01, 0xdc, 0xee, 0x1d,
    0x04, 0x00, 0x0f, 0x21, 0xb9, 0xd7, 0x20, 0xff, 0xff, 0xd1, 0x0d, 0xeb,
    0xf7, 0x0f, 0x08, 0x1e, 0xfb, 0x0f, 0xc1, 0xd2, 0x13, 0x0d, 0x01, 0xfc,
    0xf1, 0xfb, 0xf9, 0xf2, 0xcb, 0x05, 0x08, 0xed, 0xf9, 0xee, 0x03, 0xe3,
    0x02, 0xf9, 0x12, 0x14, 0x0c, 0xbb, 0xc9, 0x0d, 0x1e, 0xff, 0xcf, 0x18,
    0x08, 0x11, 0x2a, 0x18, 0x0c, 0x18, 0x29, 0x15, 0x25, 0xbb, 0x19, 0xd0,
    0xeb, 0x20, 0x0e, 0xf7, 0xff, 0xec, 0xf8, 0xff, 0xe1, 0x06, 0xf1, 0xe4,
    0x12, 0x13, 0xfc, 0x23, 0xf7, 0xfe, 0x2e, 0xf7, 0xf4, 0xe9, 0x0f, 0xcc,
    0xec, 0x31, 0x03, 0x21, 0x1e, 0xe5, 0xcb, 0xde, 0x0b, 0xe8, 0xef, 0x0a,
    0xf6, 0xf2, 0xef, 0x02, 0xc2, 0x2b, 0x20, 0xfc, 0x0c, 0xf1, 0xfd, 0xda,
    0xf0, 0x0c, 0x11, 0xf8, 0x2e, 0xe3, 0x01, 0x16, 0x2f, 0x0d, 0xbe, 0xfc,
    0x1a, 0x23, 0xf9, 0x04, 0x0f, 0x07, 0x04, 0x18, 0x0f, 0xb1, 0x1a, 0xec,
    0x0b, 0x28, 0xfa, 0x21, 0xfd, 0xe0, 0xde, 0x05, 0xfb, 0x14, 0xbe, 0x00,
    0x0f, 0xe5, 0x23, 0xf1, 0xb7, 0x12, 0xfe, 0xe8, 0x08, 0xbc, 0x10, 0xe2,
    0x05, 0xfe, 0x0e, 0x1d, 0x02, 0xdd, 0xe4, 0xc5, 0x07, 0x10, 0xb5, 0x1b,
    0xe9, 0x04, 0x13, 0x0b, 0xdd, 0xf6, 0x14, 0x04, 0x17, 0xf9, 0xf1, 0xe4,
    0xfb, 0x27, 0x3a, 0xf4, 0x1a, 0xb9, 0x0a, 0xf2, 0x24, 0xf5, 0x81, 0x0c,
    0x1f, 0x11, 0x11, 0x04, 0x00, 0x1d, 0x23, 0xe6, 0x19, 0xb3, 0x1f, 0xfd,
    0x0d, 0xfd, 0xfb, 0xfe, 0x2e, 0xb6, 0xc6, 0xc0, 0xfb, 0x0d, 0xbf, 0x1a,
    0x15, 0xde, 0x07, 0xfd, 0xec, 0x24, 0x20, 0xec, 0xea, 0xd6, 0x41, 0xb6,
    0x05, 0x50, 0x73, 0xf8, 0x2d, 0x05, 0xe4, 0x33, 0x42, 0x06, 0x07, 0x04,
    0x01, 0xe4, 0x1f, 0x0d, 0xea, 0x34, 0x4d, 0x28, 0x33, 0xee, 0x43, 0xea,
    0x25, 0x5d, 0x06, 0xd9, 0x12, 0xfc, 0xc5, 0x38, 0x23, 0x16, 0xaf, 0x3a,
    0xff, 0x07, 0x0f, 0x2d, 0x26, 0xd4, 0x01, 0x33, 0x4f, 0xec, 0xfb, 0xfb,
    0x14, 0x33, 0xef, 0x21, 0x4c, 0xc5, 0xb1, 0xa8, 0xd1, 0xd7, 0x0a, 0xd6,
    0x17, 0x06, 0x30, 0x13, 0xb1, 0xea, 0x00, 0xf9, 0xfd, 0xe3, 0x23, 0x11,
    0xf2, 0x6a, 0x34, 0x31, 0xf9, 0x9f, 0xcf, 0x1a, 0x18, 0x22, 0x0e, 0xee,
    0xd4, 0xf7, 0x09, 0x1e, 0xd9, 0x38, 0xfa, 0x24, 0x33, 0xaa, 0xf4, 0xc0,
    0xea, 0x64, 0x1e, 0x28, 0x40, 0xc0, 0xdb, 0x18, 0x30, 0x12, 0xf5, 0x4b,
    0xf7, 0x2f, 0x4d, 0xe9, 0xd2, 0xed, 0x66, 0xcb, 0x4c, 0xb2, 0xe0, 0x03,
    0xa1, 0x52, 0x57, 0x3c, 0xf7, 0x0c, 0xbc, 0xd6, 0x05, 0x34, 0x9d, 0xef,
    0xdc, 0x13, 0x29, 0x36, 0x95, 0xc1, 0x34, 0xeb, 0x34, 0xe0, 0x0b, 0xd2,
    0x1b, 0x54, 0x7a, 0x14, 0x45, 0xbb, 0xec, 0xde, 0xf9, 0x3d, 0x81, 0xf8,
    0x36, 0xea, 0xed, 0xe9, 0xe2, 0xeb, 0x45, 0x27, 0x4e, 0xa0, 0x08, 0x11,
    0xb8, 0x32, 0x4d, 0xd4, 0xff, 0xdf, 0x08, 0xee, 0x2f, 0x17, 0x98, 0x03,
    0x0f, 0xfa, 0x31, 0xf6, 0xf4, 0x2c, 0x49, 0xf0, 0x3d, 0xbf, 0xff, 0xf7,
    0xa1, 0x64, 0xf2, 0x11, 0x0a, 0xc4, 0x0b, 0x02, 0xef, 0x01, 0x16, 0xf1,
    0x34, 0x00, 0x1a, 0x32, 0x28, 0xd8, 0x19, 0x2d, 0xe2, 0xf0, 0x10, 0x24,
    0xdc, 0x07, 0xfe, 0xf9, 0x09, 0x08, 0xf3, 0xd4, 0xf4, 0xe9, 0x13, 0xd7,
    0xf6, 0x22, 0xfb, 0xec, 0x40, 0xc3, 0x24, 0x0d, 0x0b, 0xd5, 0xe4, 0xda,
    0xff, 0x0e, 0xec, 0x2e, 0xd2, 0x0b, 0xe8, 0x2a, 0xc5, 0xde, 0x3c, 0xc0,
    0xd3, 0x11, 0xf9, 0xee, 0x32, 0xd9, 0x4e, 0x04, 0xe2, 0xd4, 0x01, 0xb4,
    0x28, 0x03, 0xc6, 0x18, 0xf0, 0xd0, 0x04, 0xfa, 0xd1, 0x05, 0x0a, 0x1a,
    0x2c, 0x21, 0x0f, 0x09, 0x1b, 0xf4, 0xe6, 0x27, 0x03, 0xbf, 0xf5, 0xec,
    0x23, 0x18, 0xdf, 0x03, 0x1d, 0xe4, 0xd9, 0xd7, 0xdb, 0x1f, 0xf8, 0x07,
    0xe8, 0x07, 0x19, 0xfb, 0x2e, 0xd9, 0x04, 0x12, 0xcb, 0xf0, 0xfc, 0xe7,
    0x14, 0x09, 0x16, 0x13, 0xce, 0xe9, 0x06, 0xff, 0xdd, 0xe5, 0x1b, 0xbe,
    0xf7, 0xfe, 0x30, 0xf0, 0x08, 0xa9, 0x33, 0xf3, 0x04, 0xfb, 0x0c, 0xb8,
    0x2c, 0x2c, 0xfd, 0x07, 0x0a, 0xf9, 0xde, 0x18, 0xca, 0x1f, 0x26, 0x0f,
    0x22, 0xf8, 0x24, 0x2e, 0x2a, 0xd7, 0x11, 0x0f, 0xe7, 0xca, 0xe3, 0x13,
    0x0e, 0x10, 0xda, 0xfa, 0x04, 0xe9, 0x08, 0xf1, 0xe5, 0xff, 0x2e, 0xd5,
    0xf8, 0x09, 0xf0, 0xf9, 0x1e, 0xe3, 0xf6, 0xe9, 0xf5, 0xc2, 0xf8, 0xe6,
    0x1f, 0x13, 0x08, 0x23, 0xc7, 0x04, 0x11, 0x2b, 0xc5, 0x03, 0x29, 0xdc,
    0xdd, 0x12, 0x00, 0xe9, 0x25, 0xca, 0x1f, 0x2a, 0xf5, 0xef, 0x21, 0x81,
    0x07, 0xf9, 0xae, 0xf6, 0xe5, 0xdc, 0x15, 0xbe, 0x29, 0x3e, 0x05, 0xe8,
    0xda, 0x44, 0x60, 0xfb, 0xa7, 0x0f, 0x5e, 0x3c, 0xe3, 0xa5, 0x63, 0xbe,
    0x37, 0xf5, 0x47, 0x14, 0x21, 0xb3, 0xe5, 0x2a, 0xe2, 0x45, 0x9a, 0x29,
    0x39, 0xb7, 0xdf, 0x3a, 0xce, 0xe1, 0x6c, 0x4b, 0x41, 0x86, 0xf5, 0xd6,
    0x01, 0x3a, 0xf2, 0x23, 0xfa, 0x92, 0xa8, 0xf5, 0x7f, 0x4e, 0x8f, 0x32,
    0x30, 0xce, 0x56, 0x0c, 0x2d, 0x14, 0x0c, 0x3d, 0x3b, 0xc7, 0x4e, 0x1c,
    0xaf, 0x09, 0xd8, 0x51, 0x4c, 0xe9, 0xc0, 0xbb, 0x2e, 0x41, 0x1d, 0x2c,
    0x0a, 0x37, 0x05, 0x2d, 0xc4, 0xbf, 0x4a, 0x11, 0xea, 0x98, 0xf9, 0xd7,
    0xb5, 0x22, 0x7f, 0x35, 0x14, 0x98, 0xbf, 0xed, 0xe8, 0x54, 0x01, 0x42,
    0x01, 0x2d, 0xe7, 0xeb, 0xbd, 0xfb, 0x14, 0xd3, 0x11, 0xa3, 0x1d, 0xf0,
    0xd6, 0x26, 0x15, 0x38, 0x0a, 0xb8, 0x31, 0x52, 0x00, 0x2e, 0x91, 0x43,
    0xd1, 0x01, 0xf2, 0xcf, 0xd8, 0x19, 0x35, 0xd0, 0x68, 0x97, 0x00, 0x19,
    0x08, 0x5f, 0x21, 0xcf, 0x36, 0xf6, 0x30, 0xfd, 0xbe, 0x24, 0xf3, 0x41,
    0xc5, 0x39, 0x2a, 0xeb, 0xae, 0x19, 0xf0, 0xdd, 0x18, 0xb8, 0x1e, 0xd2,
    0x2b, 0x34, 0x2e, 0x38, 0x20, 0xc2, 0xc6, 0x3c, 0xd0, 0x42, 0xe4, 0xf2,
    0xf1, 0xd1, 0xfd, 0x1d, 0xb5, 0xbd, 0x4c, 0xf6, 0x1e, 0xe2, 0x3f, 0xa5,
    0xda, 0x6d, 0x1f, 0xd5, 0xe0, 0x0d, 0xdc, 0x15, 0x20, 0x3b, 0xe1, 0x11,
    0x37, 0x48, 0xeb, 0x13, 0x3d, 0xf4, 0x7b, 0x1c, 0x3e, 0x07, 0xe0, 0xe4,
    0xb8, 0x28, 0x5b, 0x32, 0x12, 0x01, 0xf2, 0xe6, 0x49, 0xec, 0x18, 0x11,
    0xfe, 0xf3, 0x0d, 0xc8, 0xe1, 0x42, 0xfe, 0xdf, 0xe4, 0x31, 0x25, 0xf2,
    0xe8, 0x0c, 0x40, 0xfc, 0x14, 0xcf, 0x15, 0x2a, 0x21, 0x00, 0xf3, 0x00,
    0xf5, 0xf5, 0xf5, 0xe0, 0x10, 0xff, 0xea, 0x08, 0xe7, 0xef, 0x09, 0x1b,
    0x0b, 0xf9, 0x31, 0xd3, 0xfc, 0xe5, 0x10, 0x02, 0xbb, 0x0d, 0x16, 0x19,
    0x0f, 0x26, 0x4a, 0xc6, 0x06, 0x00, 0x41, 0xe7, 0x28, 0xd6, 0x24, 0x9b,
    0x16, 0x7f, 0xf3, 0x3b, 0x2a, 0x2b, 0xf9, 0xe1, 0x14, 0x0e, 0x13, 0x2e,
    0xd9, 0xcf, 0x27, 0xdb, 0xce, 0x2c, 0xf6, 0xdb, 0x0c, 0xf6, 0x03, 0xe2,
    0xde, 0xe1, 0x26, 0x23, 0x1b, 0xce, 0x28, 0x28, 0x41, 0x1f, 0x17, 0xe1,
    0xf7, 0xfa, 0xe4, 0xf0, 0x1a, 0xf8, 0xd6, 0xe8, 0xdb, 0xea, 0xed, 0xe8,
    0x24, 0xec, 0xf8, 0x19, 0xec, 0x0e, 0xf6, 0x46, 0xe2, 0xc3, 0x15, 0x04,
    0xd5, 0x00, 0x0d, 0xf9, 0x2c, 0xd1, 0x61, 0xc9, 0x1c, 0xe6, 0x18, 0xb1,
    0x06, 0x39, 0x08, 0xf5, 0xe7, 0x07, 0x04, 0x11, 0x0b, 0xf1, 0x12, 0x0e,
    0x07, 0x17, 0xf2, 0xac, 0xfe, 0x07, 0xc5, 0x22, 0xf9, 0x17, 0xfc, 0x1d,
    0xf4, 0xb9, 0x1b, 0x0c, 0xef, 0x0b, 0x3a, 0x48, 0x27, 0xfd, 0xfa, 0x1d,
    0x2c, 0xc4, 0xdf, 0xea, 0x05, 0x07, 0xd7, 0xfa, 0x28, 0xe6, 0xf5, 0x1e,
    0xe7, 0xba, 0xfb, 0x0d, 0xd2, 0x03, 0xfe, 0xf1, 0xa1, 0xb6, 0x22, 0xfd,
    0xca, 0xf0, 0xd7, 0xf6, 0xe3, 0xc4, 0x16, 0xf5, 0xf9, 0xf2, 0xce, 0xae,
    0x24, 0xfb, 0x1d, 0x1c, 0x14, 0xf9, 0xd6, 0xd2, 0x83, 0x16, 0x08, 0xd2,
    0x0a, 0x37, 0xed, 0xf2, 0x56, 0xfa, 0x18, 0xfa, 0xe7, 0x05, 0xe9, 0x13,
    0xdc, 0xe2, 0xde, 0xe1, 0x0f, 0xf8, 0x0b, 0xe9, 0xcb, 0x2e, 0x2f, 0xe1,
    0x1d, 0x0b, 0x32, 0x13, 0x36, 0xc0, 0xd3, 0x13, 0x23, 0x21, 0xf8, 0x0a,
    0x1b, 0x03, 0xe0, 0x03, 0xd0, 0xe5, 0xd7, 0xfd, 0xf8, 0xcd, 0x17, 0xbd,
    0xf4, 0x04, 0x1a, 0xc9, 0xf1, 0xf9, 0xd9, 0x3b, 0x2a, 0x1a, 0x21, 0x81,
    0x2c, 0xef, 0xe4, 0x0f, 0x48, 0xd1, 0xf0, 0xf7, 0xcf, 0xf8, 0x1f, 0xce,
    0xf4, 0x06, 0xef, 0x00, 0x31, 0xde, 0xe8, 0x0c, 0x17, 0xe4, 0x07, 0xe8,
    0x2f, 0xf1, 0xe9, 0x25, 0x3a, 0xdb, 0x22, 0xf2, 0xe2, 0xfd, 0xdf, 0xab,
    0x07, 0x16, 0x13, 0xf4, 0x34, 0xef, 0x18, 0x3f, 0x45, 0xee, 0x17, 0xf9,
    0xea, 0xe9, 0x10, 0x34, 0x0a, 0x00, 0xd5, 0xc8, 0xe8, 0xee, 0x0e, 0xa3,
    0x25, 0x0f, 0x22, 0xce, 0x3c, 0xd9, 0x1e, 0x3b, 0xe8, 0xea, 0xe9, 0xc0,
    0x20, 0x27, 0xa3, 0x20, 0x0d, 0x0e, 0x0d, 0xef, 0xc9, 0x37, 0xf4, 0xbf,
    0x01, 0xf3, 0xfd, 0x21, 0x21, 0xdf, 0x07, 0x13, 0xf6, 0xb7, 0x2a, 0x20,
    0x0e, 0xc3, 0xb5, 0x2e, 0x2e, 0x13, 0xf7, 0xf0, 0x14, 0xf1, 0x28, 0xf7,
    0xf6, 0x29, 0x40, 0x44, 0x21, 0x01, 0xf4, 0x3c, 0xf1, 0xe2, 0xf6, 0xd6,
    0x28, 0x2f, 0xfe, 0x2c, 0xe7, 0xe8, 0xf3, 0x06, 0xec, 0x02, 0x0f, 0xa9,
    0xcb, 0xe5, 0x36, 0xf0, 0x10, 0xb1, 0x0f, 0x2e, 0x2a, 0xdb, 0xe7, 0xbd,
    0x30, 0x26, 0xb0, 0xf4, 0x39, 0x4a, 0x53, 0x2c, 0xbb, 0xd2, 0x3a, 0xb8,
    0x1a, 0x45, 0x81, 0x23, 0x1c, 0xf6, 0xee, 0x0b, 0x0d, 0x39, 0x61, 0xa2,
    0x78, 0xbc, 0x4e, 0x0b, 0x33, 0x39, 0x36, 0x41, 0xf4, 0xec, 0x20, 0xed,
    0xe2, 0xcc, 0xdf, 0x0c, 0x02, 0x2a, 0xf6, 0x47, 0x15, 0xc8, 0xee, 0xaf,
    0x5f, 0xe1, 0x3f, 0xd3, 0x06, 0x33, 0x16, 0x17, 0x97, 0xf9, 0x38, 0xbd,
    0xdf, 0x19, 0xcf, 0x01, 0xdc, 0xdf, 0xb4, 0xdf, 0x2b, 0x1b, 0x11, 0xcc,
    0x1a, 0xf3, 0x4e, 0x3d, 0x0a, 0x40, 0xe6, 0x46, 0x0f, 0x13, 0xdc, 0xbe,
    0x0b, 0x28, 0xb4, 0xdd, 0x20, 0x32, 0xe7, 0x10, 0x1d, 0xc4, 0xf0, 0xaf,
    0x74, 0xab, 0xf8, 0x11, 0x24, 0x32, 0x1c, 0x2f, 0x0a, 0xf1, 0x44, 0x37,
    0x1b, 0x29, 0xe9, 0x12, 0x18, 0xe7, 0xdf, 0xf1, 0x44, 0x26, 0x26, 0x11,
    0x03, 0xab, 0x41, 0xe4, 0xd7, 0x32, 0x2c, 0x20, 0xd6, 0xc0, 0x09, 0xd1,
    0xda, 0xcd, 0xac, 0x19, 0xce, 0x23, 0xcd, 0xfc, 0x06, 0x70, 0xbd, 0xa0,
    0x55, 0xce, 0x0f, 0xf9, 0x0b, 0x14, 0x4d, 0xf0, 0xc2, 0xf4, 0x26, 0xbe,
    0xdf, 0x08, 0xc3, 0x21, 0x28, 0x1e, 0xc6, 0x41, 0xe6, 0xf2, 0x12, 0xb9,
    0x14, 0x12, 0x28, 0xe0, 0x04, 0x40, 0x24, 0x61, 0xee, 0x38, 0x51, 0xf4,
    0x27, 0x04, 0xa1, 0x27, 0xbd, 0xd9, 0xac, 0xef, 0x17, 0x33, 0xe9, 0xfa,
    0x29, 0x0c, 0x07, 0x2c, 0x27, 0xe8, 0x23, 0x64, 0xf8, 0xe9, 0x0e, 0xd4,
    0xe4, 0x0a, 0xd0, 0xf5, 0xf2, 0x01, 0xd5, 0x2a, 0xd9, 0x17, 0xe8, 0xa4,
    0x13, 0xf0, 0xf9, 0xc5, 0x34, 0x07, 0x29, 0x5b, 0xe3, 0xf1, 0xf7, 0x42,
    0xda, 0xc0, 0x9a, 0xb9, 0x03, 0x70, 0x12, 0xf2, 0x16, 0x25, 0x13, 0xbb,
    0x28, 0x1a, 0x70, 0x0d, 0x0a, 0xf2, 0xf4, 0x41, 0x23, 0xf5, 0x1e, 0x58,
    0xd3, 0x0e, 0xd8, 0x10, 0xee, 0x0c, 0xf3, 0xdc, 0xc2, 0xf7, 0x1b, 0xd9,
    0xdd, 0x1f, 0x21, 0xce, 0x3a, 0x25, 0x29, 0x23, 0x1f, 0xd4, 0x3e, 0xd7,
    0xc0, 0x30, 0x67, 0xe1, 0x0a, 0x3b, 0x1a, 0x05, 0x4b, 0x22, 0x1c, 0x08,
    0x26, 0x4d, 0x16, 0x06, 0x0c, 0xf3, 0x35, 0x0d, 0xf1, 0xef, 0xf5, 0x12,
    0x1f, 0xdb, 0xf8, 0xcd, 0xb3, 0x77, 0xfd, 0xad, 0x18, 0x18, 0x33, 0xd0,
    0xf6, 0x2a, 0x78, 0x30, 0xda, 0xfd, 0xf0, 0x53, 0xdc, 0x2d, 0xc7, 0x16,
    0x20, 0xcc, 0xa6, 0xf8, 0xff, 0xdb, 0x02, 0x18, 0xc4, 0xc1, 0xe0, 0xc1,
    0x0c, 0xce, 0x19, 0x08, 0x42, 0xea, 0xd1, 0x53, 0x0b, 0xe0, 0x23, 0xee,
    0xb1, 0x46, 0x51, 0x02, 0x0b, 0x3f, 0x24, 0xde, 0x46, 0xdf, 0xe4, 0xb3,
    0xf8, 0xf8, 0xfe, 0xfc, 0x55, 0x38, 0xe1, 0x56, 0x0e, 0x27, 0x41, 0x45,
    0x02, 0xcb, 0xc5, 0xf9, 0xca, 0x53, 0xdc, 0x12, 0xf3, 0x14, 0x05, 0xd7,
    0x07, 0x23, 0x4b, 0xe3, 0x00, 0x02, 0xea, 0x4d, 0x2c, 0xdd, 0xd1, 0xf0,
    0xec, 0x0e, 0xfd, 0xf9, 0xe4, 0x00, 0xb0, 0xff, 0x11, 0xa7, 0xcb, 0xe9,
    0x04, 0xbd, 0xe6, 0xd0, 0x08, 0xfc, 0xf1, 0x05, 0x10, 0xb5, 0xf0, 0xe0,
    0xc9, 0x3b, 0x31, 0xbb, 0x2f, 0xea, 0x29, 0xd3, 0x21, 0x10, 0xd7, 0x81,
    0x3d, 0x1f, 0x47, 0x38, 0x55, 0xcf, 0xef, 0xf5, 0xda, 0x14, 0x23, 0x1b,
    0x0e, 0x32, 0x62, 0x22, 0xf4, 0x2d, 0xdd, 0x39, 0x29, 0x05, 0x23, 0x9f,
    0x41, 0xfa, 0x5e, 0x22, 0xfc, 0xd8, 0x51, 0xfb, 0x33, 0x1a, 0x2f, 0x32,
    0xdf, 0xfd, 0x3e, 0xde, 0xb7, 0x06, 0x16, 0x25, 0x32, 0xec, 0x41, 0xd4,
    0x5b, 0x63, 0x1e, 0x2d, 0x57, 0x24, 0x24, 0x5a, 0x2f, 0xf5, 0x26, 0x56,
    0xd9, 0xea, 0x47, 0x45, 0xe9, 0x2c, 0xeb, 0xda, 0x46, 0xff, 0x32, 0xbd,
    0x4b, 0x36, 0x31, 0x05, 0x56, 0x13, 0x20, 0xc9, 0x07, 0x3a, 0x37, 0x22,
    0xd1, 0x38, 0xf7, 0x50, 0x0d, 0x0b, 0x15, 0xea, 0x01, 0xc2, 0x3e, 0x8c,
    0x28, 0xf4, 0x7f, 0x51, 0x55, 0x1d, 0x01, 0x4d, 0x1a, 0x31, 0xdb, 0x4d,
    0x46, 0x3f, 0x38, 0x4e, 0x1d, 0x2b, 0x2a, 0x4e, 0xd7, 0x08, 0xe2, 0xbb,
    0xee, 0x15, 0xf2, 0x3f, 0xf5, 0x07, 0xf6, 0x5b, 0x68, 0x10, 0xe7, 0x11,
    0x2b, 0xf9, 0x0a, 0x00, 0x0c, 0x02, 0x2a, 0x10, 0x5c, 0xcb, 0x1b, 0xc2,
    0x1f, 0x12, 0x4b, 0xf3, 0x0b, 0x00, 0x3a, 0x36, 0xfc, 0x3c, 0x08, 0xc9,
    0xf6, 0xea, 0x6f, 0x43, 0xed, 0xfa, 0x31, 0x4e, 0x42, 0xa7, 0x17, 0xe2,
    0x08, 0x09, 0x64, 0x21, 0xf8, 0xba, 0x43, 0x0a, 0xc6, 0x32, 0x27, 0xec,
    0xd8, 0x1f, 0xe7, 0x0c, 0xef, 0x01, 0x07, 0x2e, 0xde, 0xe1, 0x27, 0x24,
    0x2c, 0x61, 0xf4, 0x33, 0x34, 0x28, 0xef, 0x57, 0x5e, 0x17, 0x99, 0x45,
    0x18, 0x27, 0x00, 0x29, 0x2c, 0x4c, 0x45, 0x37, 0xea, 0xcb, 0x32, 0xa4,
    0x55, 0x50, 0x4e, 0x56, 0xe2, 0x2b, 0xe8, 0x49, 0x22, 0x1d, 0xfb, 0x1c,
    0x01, 0xeb, 0x90, 0xcf, 0x3b, 0x24, 0xc1, 0xfa, 0xdb, 0x37, 0xfe, 0xf4,
    0x25, 0x92, 0xf6, 0x1d, 0x0a, 0x3e, 0x21, 0xf1, 0xe2, 0xe3, 0xf7, 0xf1,
    0x02, 0x0a, 0xe6, 0x22, 0x58, 0x03, 0x00, 0x04, 0x19, 0x2d, 0xa1, 0x04,
    0xd6, 0xab, 0x07, 0xda, 0xf8, 0x28, 0xdb, 0xca, 0xf1, 0x41, 0x5f, 0xcb,
    0x25, 0xe8, 0x1c, 0x36, 0x55, 0xf2, 0x0d, 0x21, 0xc7, 0x2d, 0xe2, 0x19,
    0x1d, 0x09, 0x0a, 0x02, 0x1e, 0x0a, 0x26, 0x44, 0x18, 0x2d, 0xfb, 0x26,
    0x0c, 0xa7, 0x90, 0x02, 0x3b, 0x18, 0xab, 0x9f, 0xfe, 0x30, 0xbd, 0x46,
    0xd2, 0x9f, 0xe7, 0xb7, 0xe1, 0x54, 0x25, 0xe7, 0x43, 0xe9, 0x22, 0xd8,
    0xff, 0xf3, 0xfc, 0x04, 0x48, 0x37, 0xb5, 0xfe, 0xe8, 0x7f, 0x9f, 0x1c,
    0xe5, 0xd0, 0x10, 0xf9, 0x05, 0x1a, 0xe2, 0x1b, 0x29, 0xd5, 0x69, 0x0d,
    0x19, 0xff, 0x18, 0x11, 0xf5, 0x13, 0xb8, 0x10, 0xcd, 0x62, 0x1a, 0x4f,
    0xee, 0xc4, 0x47, 0xd9, 0xcb, 0x4a, 0x13, 0x54, 0x3d, 0xcb, 0x0b, 0xec,
    0xfa, 0xaf, 0xa4, 0xd8, 0x2a, 0xf8, 0x9c, 0xed, 0xc0, 0x4b, 0xd9, 0x2a,
    0x17, 0xec, 0xd1, 0xc9, 0xfa, 0x40, 0x31, 0x10, 0x4c, 0x06, 0x03, 0x21,
    0x13, 0xc4, 0xe3, 0xd8, 0x2c, 0x0a, 0x09, 0xde, 0x01, 0x7f, 0xba, 0x29,
    0xcf, 0xf4, 0x0f, 0x13, 0x1e, 0x18, 0xfa, 0xc3, 0xd2, 0x20, 0x3c, 0x1f,
    0x20, 0xfb, 0x21, 0x26, 0x4d, 0xef, 0x10, 0xd7, 0xfd, 0x46, 0x0b, 0x20,
    0x24, 0xba, 0x28, 0xda, 0x04, 0x24, 0xf1, 0x00, 0x08, 0x16, 0xca, 0x3b,
    0xe9, 0xce, 0x2c, 0x0d, 0xd8, 0xf3, 0x14, 0x25, 0x32, 0xe2, 0x32, 0xa4,
    0xee, 0x08, 0x53, 0xd7, 0x21, 0x01, 0xf3, 0x37, 0xeb, 0x19, 0x12, 0xe7,
    0x3a, 0xf3, 0x2c, 0x39, 0xb6, 0x1d, 0x42, 0x0e, 0xe2, 0x03, 0x54, 0xc2,
    0x38, 0x0c, 0x02, 0x2b, 0x0e, 0x14, 0xc3, 0x02, 0x24, 0x3a, 0xeb, 0x17,
    0x3c, 0x01, 0x0a, 0xd9, 0xd3, 0x11, 0x58, 0xf5, 0x1d, 0x03, 0x36, 0x00,
    0x16, 0xf9, 0xf0, 0x23, 0x2a, 0xb4, 0xb0, 0xf7, 0xf5, 0x1e, 0xeb, 0x39,
    0x12, 0xf8, 0x53, 0x0e, 0xdc, 0xd7, 0x11, 0xd8, 0x31, 0xc0, 0x23, 0xad,
    0x1d, 0x55, 0x55, 0x0f, 0x41, 0xbf, 0xec, 0xfd, 0xf1, 0x04, 0xcf, 0x28,
    0x30, 0x19, 0x18, 0x33, 0xdd, 0x28, 0xe8, 0xe6, 0xde, 0xc9, 0x1d, 0xcf,
    0xc9, 0x26, 0x02, 0x26, 0x50, 0xfb, 0x1a, 0xec, 0x5e, 0x18, 0xb7, 0x0f,
    0xe0, 0xcb, 0x2f, 0xeb, 0x21, 0xfa, 0x3b, 0xf5, 0x30, 0xb4, 0x4f, 0xe9,
    0x14, 0x30, 0x17, 0x15, 0x14, 0xb6, 0xb7, 0xb7, 0xfa, 0x08, 0xdd, 0xdd,
    0xe0, 0x07, 0x35, 0xd0, 0xd8, 0xeb, 0x19, 0xef, 0x0b, 0xcd, 0x1a, 0xf0,
    0xdb, 0x25, 0x0f, 0x2c, 0x08, 0xd1, 0x09, 0x21, 0x29, 0xde, 0x9c, 0xe1,
    0x09, 0xf6, 0x1c, 0x2b, 0xe0, 0x11, 0x53, 0x14, 0xde, 0x93, 0x0d, 0x1e,
    0x19, 0x5f, 0x15, 0x0c, 0x36, 0xdc, 0xcc, 0xf5, 0x69, 0x26, 0x81, 0x5f,
    0xd6, 0xce, 0xf2, 0x16, 0x04, 0x02, 0x54, 0xdf, 0x25, 0x09, 0x31, 0x0a,
    0xd7, 0x32, 0x43, 0xe7, 0x19, 0xe9, 0xfb, 0xca, 0xd8, 0xc4, 0x0e, 0xd7,
    0xd1, 0xd5, 0xce, 0xfe, 0x1b, 0xef, 0x2e, 0xda, 0x22, 0xf0, 0xfd, 0xe8,
    0xd4, 0x1a, 0xd7, 0x2a, 0xe3, 0x28, 0xd2, 0xfc, 0x19, 0xe4, 0xdd, 0xe0,
    0xd4, 0xdb, 0xfb, 0xe5, 0xf9, 0xd9, 0xe1, 0x1a, 0xd3, 0x01, 0xf5, 0xd8,
    0xd0, 0xfe, 0xec, 0x0d, 0xdc, 0xda, 0xcb, 0xf0, 0x0b, 0xc4, 0x2f, 0x23,
    0x0d, 0x1e, 0xfb, 0x2c, 0x1c, 0xa0, 0xd7, 0x2c, 0x11, 0xe2, 0xff, 0xfb,
    0x0e, 0xc9, 0xd1, 0x1d, 0x1c, 0x06, 0x18, 0xe6, 0x08, 0x33, 0x36, 0x0b,
    0x29, 0xd6, 0xf3, 0x04, 0xec, 0x11, 0x0d, 0xf2, 0xd6, 0x06, 0x1d, 0x27,
    0x0f, 0xd3, 0xd9, 0x21, 0xcb, 0x2a, 0xd2, 0xde, 0xfb, 0x30, 0xdf, 0x09,
    0x0c, 0xd3, 0x1d, 0xef, 0xdb, 0xe1, 0xd0, 0xd1, 0x04, 0x2e, 0xec, 0x17,
    0xf4, 0xde, 0x11, 0x24, 0x23, 0x1b, 0xdd, 0xb3, 0xbb, 0xce, 0x19, 0xd1,
    0x04, 0xf2, 0x03, 0xee, 0xf5, 0xe8, 0xc7, 0xf4, 0x28, 0x02, 0xf7, 0x28,
    0xc9, 0xdb, 0xea, 0x1b, 0x1a, 0x22, 0xe3, 0xae, 0xe2, 0x41, 0xe1, 0x27,
    0xe4, 0xdc, 0x05, 0xfb, 0xf0, 0xcf, 0x11, 0x1b, 0xc2, 0xd1, 0x28, 0xe7,
    0xe8, 0x09, 0x22, 0xc9, 0xca, 0xf9, 0xd7, 0x09, 0xd9, 0x1e, 0xf2, 0xf5,
    0xe0, 0xcc, 0x2a, 0xd5, 0x05, 0xce, 0x1f, 0x25, 0xcf, 0x2b, 0x2e, 0x07,
    0x19, 0xc9, 0xdb, 0x2d, 0x18, 0xe0, 0xdd, 0xd2, 0xb4, 0x2c, 0xdf, 0xcd,
    0x28, 0x1b, 0xe9, 0x10, 0x11, 0x81, 0xeb, 0x18, 0x22, 0x0e, 0x07, 0xfd,
    0x16, 0xe9, 0xd9, 0xf8, 0x34, 0xf8, 0xfe, 0x0a, 0x21, 0xfd, 0xde, 0x07,
    0x07, 0xe3, 0xbe, 0xe1, 0xf0, 0x25, 0xf2, 0xf7, 0xec, 0x08, 0x09, 0x48,
    0x93, 0xc2, 0x2d, 0xb9, 0xfe, 0xb0, 0x01, 0x18, 0x10, 0x27, 0xdc, 0x06,
    0xf9, 0xdd, 0xe4, 0x0e, 0xfb, 0x31, 0xfe, 0xea, 0x0d, 0x81, 0x0b, 0x04,
    0xe8, 0x08, 0x07, 0xd7, 0xce, 0xc6, 0xe8, 0xd2, 0xb1, 0xcc, 0x0f, 0xc6,
    0xbf, 0xd0, 0xbf, 0xd2, 0xeb, 0xfa, 0xcf, 0xdd, 0xde, 0xef, 0xdc, 0xc7,
    0xf9, 0xf2, 0xce, 0x1e, 0x37, 0x19, 0x20, 0x00, 0x3a, 0xed, 0x0b, 0x1e,
    0x15, 0xde, 0xd2, 0xe4, 0xe7, 0x11, 0xfd, 0xdc, 0xef, 0x00, 0x26, 0x4d,
    0x9d, 0xe4, 0x27, 0xd5, 0x0b, 0xb3, 0xde, 0x1e, 0x1c, 0x1e, 0x00, 0x1b,
    0x0a, 0xfc, 0x0a, 0x0d, 0x15, 0x2a, 0x0b, 0xd0, 0x10, 0x9d, 0xf9, 0xf5,
    0xcf, 0xe5, 0x0e, 0xd5, 0xf4, 0xca, 0xf0, 0xce, 0xb6, 0xcc, 0xf2, 0xf0,
    0xbf, 0xd4, 0xd2, 0xb8, 0xdd, 0xef, 0xfa, 0xe1, 0xf7, 0xfb, 0x04, 0xb3,
    0xda, 0x17, 0xcb, 0x13, 0x44, 0x09, 0xe3, 0xe5, 0x28, 0x12, 0xd0, 0x23,
    0x11, 0xe5, 0xac, 0xd7, 0xee, 0x24, 0xed, 0xfe, 0x21, 0x11, 0x10, 0x39,
    0x90, 0xed, 0x2f, 0xa9, 0x02, 0xb6, 0xbc, 0x07, 0x14, 0x07, 0xd6, 0x00,
    0x21, 0x01, 0x06, 0x0b, 0xec, 0xfc, 0x1c, 0xea, 0x1a, 0x94, 0xff, 0xff,
    0xd4, 0xe4, 0xe6, 0xfc, 0xee, 0x0a, 0xf4, 0xe7, 0xc9, 0xc0, 0x0d, 0xf6,
    0xb2, 0xbb, 0xd6, 0xa5, 0xb0, 0x0c, 0xf8, 0xd3, 0x0e, 0x30, 0x01, 0xab,
    0x00, 0x1a, 0xce, 0x0d, 0x07, 0x4c, 0x2f, 0x0f, 0x3c, 0xff, 0x14, 0x25,
    0xff, 0xc1, 0xc3, 0xcd, 0xf0, 0x12, 0xdf, 0xc1, 0xea, 0x3c, 0x00, 0x35,
    0x17, 0xaf, 0xd5, 0xef, 0x02, 0x1c, 0xfa, 0x1c, 0x22, 0xe4, 0x20, 0x19,
    0xfd, 0xf9, 0xfe, 0xd7, 0xf7, 0x37, 0xe6, 0xfb, 0x13, 0x65, 0xcf, 0x22,
    0xc5, 0xe9, 0x13, 0xdc, 0x03, 0x00, 0x30, 0xd3, 0x29, 0x2a, 0x27, 0x07,
    0x25, 0xe0, 0xcf, 0xf4, 0xe3, 0x13, 0xd2, 0x06, 0x0f, 0x6d, 0xec, 0x41,
    0xbd, 0xc0, 0xfd, 0xfa, 0xff, 0x1c, 0x33, 0x18, 0x30, 0x11, 0x0e, 0x13,
    0xde, 0xdd, 0x9b, 0xec, 0xbd, 0x20, 0x00, 0xc7, 0x2c, 0x69, 0x0c, 0x3f,
    0x15, 0xcb, 0xd2, 0xe6, 0xd9, 0x2d, 0x02, 0x0e, 0x2c, 0xe2, 0x02, 0x03,
    0x22, 0xd1, 0xe7, 0xf6, 0xf5, 0x37, 0xe2, 0x19, 0xf6, 0x3f, 0xe7, 0x3f,
    0xc8, 0xf0, 0xfd, 0x0e, 0xf6, 0x1b, 0x0a, 0xea, 0x0c, 0x11, 0xf8, 0x34,
    0x3f, 0x00, 0xcb, 0x03, 0xe7, 0xfe, 0xef, 0x07, 0x02, 0x49, 0xe5, 0x43,
    0xd1, 0xc9, 0x22, 0xed, 0xf7, 0x1e, 0x1e, 0x3d, 0x26, 0x12, 0x21, 0xf1,
    0xf5, 0xe4, 0x81, 0xe9, 0xde, 0x35, 0xfe, 0x01, 0x2a, 0x62, 0x08, 0x38,
    0xe7, 0x9c, 0xb1, 0xda, 0x18, 0x2b, 0x15, 0xff, 0x30, 0x16, 0x09, 0x1c,
    0xe6, 0xc9, 0xcd, 0xec, 0xf7, 0x34, 0xf3, 0x12, 0x10, 0x2a, 0xf4, 0x40,
    0xc5, 0xc3, 0xd7, 0xfd, 0x06, 0x1d, 0x1d, 0xfe, 0x34, 0x0d, 0x37, 0x11,
    0x13, 0xdb, 0xf2, 0x22, 0x06, 0xfa, 0xee, 0xdf, 0xe1, 0x52, 0xea, 0x2e,
    0xd1, 0xc3, 0x27, 0xdf, 0x2c, 0xfa, 0xe1, 0xf5, 0xe9, 0x09, 0x13, 0xfb,
    0xf4, 0x11, 0x4a, 0x33, 0x27, 0xe6, 0x0d, 0xed, 0xf9, 0x26, 0xe1, 0xf9,
    0x0e, 0xfe, 0xf8, 0xed, 0x0a, 0xd7, 0xc1, 0xf1, 0x09, 0xe9, 0x22, 0x08,
    0xe9, 0xfe, 0x0c, 0xf6, 0x01, 0xc6, 0x3b, 0xf6, 0xff, 0xdf, 0x39, 0xe0,
    0x1f, 0x1c, 0x04, 0xec, 0xcd, 0xf0, 0xd7, 0x37, 0xe0, 0xe0, 0x49, 0xb0,
    0xf4, 0x23, 0x24, 0xf5, 0xc6, 0xdd, 0x59, 0x18, 0x04, 0xea, 0x11, 0xba,
    0x05, 0x10, 0x01, 0xe2, 0xf1, 0xc9, 0xb6, 0xe6, 0x1a, 0x27, 0x00, 0xe9,
    0x21, 0x39, 0x1f, 0x14, 0x3b, 0xce, 0x22, 0x29, 0xff, 0xc5, 0x1a, 0xde,
    0x00, 0x2a, 0xf1, 0x11, 0x23, 0xd9, 0xd7, 0x08, 0xf3, 0x01, 0xee, 0xdf,
    0xfb, 0xee, 0x08, 0xdc, 0x2f, 0xde, 0x3a, 0xf6, 0x10, 0xb7, 0x04, 0xa7,
    0x18, 0x06, 0xe2, 0xeb, 0xd2, 0x2c, 0x01, 0x25, 0xdc, 0x05, 0x22, 0xdc,
    0xc0, 0xfb, 0x18, 0xf5, 0xec, 0xbd, 0x1b, 0x08, 0x25, 0xea, 0xf3, 0x98,
    0x1a, 0x18, 0xf9, 0x11, 0x24, 0xf9, 0x06, 0x15, 0xd5, 0xfc, 0x4e, 0x16,
    0x37, 0x00, 0x2b, 0x25, 0x0b, 0xc5, 0xf2, 0x09, 0xf9, 0xf1, 0xe9, 0xf1,
    0xd9, 0x30, 0xd4, 0x26, 0x0c, 0xe5, 0x00, 0x15, 0xd5, 0x14, 0x55, 0xf8,
    0xef, 0xf1, 0x24, 0xf7, 0x1c, 0xc9, 0x18, 0xf3, 0xf7, 0xad, 0x0e, 0xf2,
    0x1a, 0xfe, 0xf3, 0xf4, 0xf6, 0x18, 0xf2, 0x14, 0xb1, 0xd6, 0x6c, 0xd3,
    0xca, 0x04, 0x00, 0xf2, 0xb8, 0x0a, 0x40, 0xfa, 0xfa, 0xd9, 0xf0, 0x81,
    0xe5, 0xee, 0x05, 0xe5, 0x01, 0xe8, 0xdd, 0xd4, 0xb2, 0x2b, 0x0a, 0xd2,
    0x10, 0x16, 0x21, 0x2a, 0xa0, 0xb1, 0x28, 0x1f, 0x1b, 0xda, 0x41, 0x91,
    0x3c, 0x31, 0x70, 0x18, 0xe3, 0xba, 0x27, 0x00, 0x39, 0x07, 0x14, 0xd1,
    0x12, 0xba, 0x31, 0xe8, 0x90, 0xbd, 0x20, 0xfc, 0x26, 0xe4, 0xe5, 0xe1,
    0x0d, 0x34, 0x30, 0x25, 0x09, 0xe0, 0xef, 0x1e, 0x33, 0x19, 0xbe, 0x34,
    0xcd, 0x34, 0x36, 0x16, 0xeb, 0xe1, 0x1a, 0x29, 0x68, 0x07, 0x25, 0x05,
    0xfd, 0x1f, 0xf2, 0x21, 0x01, 0xee, 0xd8, 0xda, 0xb7, 0xdc, 0xe4, 0x28,
    0xe5, 0xd3, 0x47, 0xbb, 0x87, 0xb7, 0x3a, 0x1e, 0xd9, 0xdd, 0x3e, 0x09,
    0xfc, 0x58, 0x1b, 0x45, 0x4d, 0x32, 0xe8, 0xea, 0xe4, 0x02, 0xaa, 0xfd,
    0x06, 0x04, 0xf8, 0x00, 0x9d, 0xc8, 0x18, 0x2a, 0x36, 0x17, 0x02, 0xb3,
    0xe5, 0xf5, 0x29, 0x3a, 0x1d, 0xcb, 0xf3, 0x34, 0x79, 0x34, 0xa6, 0xfe,
    0x04, 0xe6, 0xff, 0x15, 0x3e, 0x10, 0x2f, 0x33, 0xf9, 0xb3, 0xf3, 0x23,
    0x31, 0x66, 0x5d, 0xd2, 0x4f, 0xbd, 0x23, 0x30, 0x06, 0x07, 0x0b, 0xf6,
    0x26, 0x39, 0x52, 0x1d, 0xd8, 0xe2, 0x5e, 0xf9, 0x2e, 0x15, 0xd6, 0xa7,
    0x38, 0x62, 0x49, 0x38, 0x4b, 0x1a, 0xcd, 0xc1, 0xdd, 0xc7, 0xe9, 0xde,
    0x00, 0xf5, 0xf8, 0x13, 0xa1, 0xe1, 0x28, 0xba, 0xf9, 0xbf, 0x33, 0xec,
    0xcf, 0x68, 0x1b, 0x34, 0x56, 0x0b, 0xc1, 0x2c, 0x77, 0x1d, 0x81, 0x47,
    0xfb, 0x2c, 0xe3, 0xfb, 0xc6, 0x39, 0x23, 0x18, 0xfa, 0xbf, 0x32, 0x22,
    0x0d, 0xfe, 0x2a, 0x0d, 0x2d, 0x33, 0x35, 0x09, 0x31, 0x02, 0x37, 0x03,
    0xe3, 0x04, 0x8e, 0xbb, 0xd0, 0x25, 0xa7, 0x06, 0xfe, 0x39, 0xf8, 0xe7,
    0x04, 0x98, 0xb7, 0xf7, 0x35, 0x39, 0x20, 0xf7, 0xf6, 0x31, 0x0c, 0x37,
    0xf4, 0x23, 0xf9, 0xea, 0x1f, 0x23, 0xc2, 0xf3, 0x37, 0x68, 0xe1, 0x2c,
    0xcd, 0xbc, 0xe5, 0xdf, 0x31, 0x26, 0xdd, 0xb0, 0xed, 0x34, 0x05, 0x10,
    0x54, 0x19, 0xd0, 0xf0, 0x12, 0x3d, 0xc4, 0xf9, 0x02, 0x4d, 0xf1, 0x69,
    0x13, 0xc8, 0x09, 0x0e, 0x0a, 0x09, 0x30, 0x39, 0x60, 0xe1, 0x3b, 0xde,
    0xcd, 0xce, 0x92, 0xaf, 0xd2, 0x25, 0xcf, 0xdb, 0x13, 0x6d, 0x07, 0xdc,
    0xe6, 0x88, 0x9e, 0x0a, 0xdc, 0x17, 0x24, 0xd9, 0x36, 0x18, 0x38, 0x12,
    0xe5, 0xfd, 0xc3, 0x28, 0x4d, 0x0f, 0xf0, 0x1d, 0xfe, 0x2f, 0xd1, 0x2c,
    0xe7, 0xc0, 0xcb, 0xd6, 0x30, 0x1d, 0x28, 0xb0, 0x0c, 0x3c, 0x19, 0x07,
    0x19, 0xd7, 0xe8, 0x0b, 0x16, 0xf5, 0xeb, 0xd4, 0xee, 0x4a, 0xd9, 0x77,
    0xee, 0xc3, 0x03, 0xea, 0xd7, 0x22, 0x33, 0x1b, 0x2b, 0x0f, 0xde, 0xef,
    0x08, 0xee, 0x92, 0xf4, 0x11, 0x0d, 0xea, 0xcc, 0xe7, 0x2a, 0xbd, 0xfb,
    0x12, 0x81, 0xae, 0xce, 0xe4, 0x1f, 0xd6, 0x32, 0x24, 0xf0, 0x3d, 0x00,
    0xe5, 0x0a, 0xab, 0x2a, 0x26, 0x1a, 0xfe, 0x09, 0xec, 0x38, 0xd2, 0x1b,
    0xda, 0xbf, 0x0e, 0xd0, 0x12, 0x12, 0xdd, 0xd2, 0x12, 0x38, 0x51, 0x3d,
    0x32, 0x0a, 0xdd, 0x1c, 0x27, 0x14, 0xcb, 0xe5, 0x13, 0x36, 0xe3, 0x76,
    0xcb, 0xd8, 0x03, 0xca, 0xe7, 0x12, 0x2f, 0x36, 0x2c, 0xf7, 0x09, 0x2b,
    0xed, 0xd7, 0xb3, 0xf6, 0xdd, 0x32, 0xed, 0x8c, 0x25, 0x34, 0xc9, 0x0c,
    0xd7, 0xbb, 0xec, 0xdf, 0xbb, 0xcb, 0x14, 0xca, 0xf8, 0x02, 0x27, 0xec,
    0xeb, 0x10, 0xc8, 0x04, 0x0c, 0xf2, 0x1a, 0xc5, 0xdd, 0xd4, 0xe4, 0xfa,
    0xfc, 0xe2, 0xde, 0xf5, 0xd1, 0xc9, 0xc5, 0xc6, 0x87, 0x0f, 0x1e, 0x19,
    0x1d, 0x0c, 0xe6, 0x2b, 0xf6, 0xde, 0xfd, 0xf3, 0x11, 0x99, 0x0e, 0xe2,
    0x47, 0x19, 0x19, 0x0b, 0x14, 0x30, 0x19, 0x3e, 0x02, 0x1f, 0x09, 0x13,
    0xfa, 0x02, 0xc4, 0xe5, 0xc4, 0x26, 0x04, 0xdd, 0x17, 0x4e, 0xe0, 0x30,
    0xd4, 0xdf, 0xdd, 0x01, 0xdc, 0x02, 0xea, 0xe5, 0x27, 0x1c, 0xe6, 0x1f,
    0xfa, 0x11, 0xdd, 0x05, 0xd2, 0xff, 0xee, 0xce, 0x19, 0xd3, 0xce, 0x05,
    0xea, 0xfb, 0xd3, 0x0d, 0xf5, 0xfd, 0xc5, 0xf0, 0x81, 0x0f, 0x2f, 0xe6,
    0x0c, 0xfd, 0xcf, 0x14, 0xea, 0xfd, 0xef, 0xcf, 0x04, 0x9d, 0xc0, 0x10,
    0xf0, 0xe3, 0x21, 0xfd, 0xd5, 0x2f, 0x3a, 0xf9, 0xf3, 0x06, 0x21, 0x2e,
    0xd8, 0xe4, 0x86, 0xe5, 0xc3, 0xfb, 0x19, 0x08, 0x1e, 0x54, 0x0f, 0xec,
    0xbf, 0xc9, 0xfb, 0xee, 0xc2, 0x19, 0x32, 0xd2, 0x2f, 0x07, 0x0c, 0x1f,
    0xe5, 0x0c, 0xbc, 0xda, 0xc8, 0x0b, 0xeb, 0xf5, 0xe6, 0xd2, 0xf1, 0xe8,
    0xd2, 0xe3, 0xf1, 0xe4, 0xf9, 0xd7, 0x20, 0xed, 0xc1, 0x1f, 0x11, 0xf1,
    0x19, 0xf5, 0xdb, 0x0f, 0xde, 0xcc, 0xb8, 0xdc, 0xc8, 0x92, 0x12, 0xdc,
    0x3c, 0xf5, 0x10, 0x13, 0x35, 0xfb, 0xbb, 0xc7, 0xd5, 0x18, 0x11, 0x10,
    0xc6, 0xd9, 0x00, 0x19, 0xcc, 0x1f, 0x35, 0x04, 0xf9, 0xed, 0x25, 0xa3,
    0x19, 0x0a, 0x35, 0x33, 0x33, 0x16, 0xfb, 0xe5, 0xe0, 0x1e, 0xc0, 0xf5,
    0x02, 0xc0, 0x33, 0xfc, 0xec, 0xeb, 0xfb, 0xc7, 0x19, 0xe2, 0x1a, 0x13,
    0xfe, 0x02, 0x22, 0x0e, 0xef, 0x05, 0xf3, 0x26, 0xf2, 0xe3, 0xc1, 0xe9,
    0x0e, 0xdd, 0x20, 0x36, 0x02, 0xe8, 0x2b, 0xf9, 0x0b, 0xdd, 0x10, 0xea,
    0x05, 0x30, 0x41, 0x18, 0x25, 0xfe, 0xcb, 0xe1, 0xdd, 0xec, 0xe9, 0x07,
    0x26, 0xed, 0x2c, 0xc9, 0x83, 0x24, 0x01, 0x06, 0x3b, 0xe0, 0x05, 0xb2,
    0x1b, 0x21, 0x70, 0x26, 0x22, 0xfd, 0x09, 0x13, 0x13, 0xdb, 0xd4, 0xf5,
    0xe7, 0x04, 0x1e, 0xeb, 0xdf, 0xe5, 0x07, 0x02, 0x2a, 0xf3, 0x33, 0xcf,
    0x13, 0x2f, 0x1b, 0xec, 0x0a, 0xb5, 0xc3, 0x2e, 0x14, 0x29, 0xbc, 0x2e,
    0xe2, 0x08, 0x43, 0x21, 0xfc, 0xdf, 0x4a, 0xd2, 0x39, 0xbf, 0x34, 0x0d,
    0xff, 0x2c, 0x3a, 0xee, 0x30, 0xf1, 0xc2, 0xbc, 0xfa, 0xf1, 0xdd, 0xfc,
    0xcf, 0x1c, 0x22, 0xcc, 0x81, 0x19, 0x36, 0x07, 0xeb, 0xba, 0x28, 0xe8,
    0xda, 0x41, 0x14, 0x35, 0xe2, 0xf1, 0xf7, 0x14, 0x02, 0x39, 0xab, 0x47,
    0x25, 0xef, 0x07, 0xdd, 0xfe, 0x20, 0x53, 0x05, 0x04, 0xab, 0x39, 0xe8,
    0x05, 0x3e, 0x08, 0x1a, 0x11, 0xb2, 0x18, 0x36, 0x3e, 0xe0, 0xe2, 0x27,
    0xe5, 0xe4, 0x35, 0x02, 0x1c, 0x0c, 0x0c, 0xec, 0x2e, 0xab, 0x1a, 0xbc,
    0xd6, 0xfa, 0x1a, 0xf8, 0xcc, 0x02, 0x0f, 0x30, 0x23, 0xeb, 0x23, 0xf1,
    0x14, 0x04, 0xb0, 0x1e, 0x7f, 0x28, 0xa9, 0xcb, 0xe5, 0x1d, 0xc4, 0x1e,
    0xfb, 0xbf, 0xc2, 0x18, 0xfc, 0xed, 0x1d, 0x26, 0xda, 0x17, 0x1e, 0x00,
    0x0c, 0x05, 0xd8, 0xe4, 0x54, 0xe9, 0xfa, 0x1c, 0xe4, 0x51, 0x07, 0xcf,
    0xfd, 0xe2, 0x0e, 0xf2, 0x1b, 0x18, 0x1e, 0x13, 0xc5, 0x17, 0x10, 0xc3,
    0x29, 0x22, 0x23, 0xe6, 0xe7, 0x21, 0xec, 0xca, 0x1b, 0x48, 0x0c, 0xef,
    0xe8, 0xf9, 0x04, 0x1d, 0x19, 0x13, 0xf2, 0x29, 0x48, 0x1a, 0x2f, 0xc2,
    0xfe, 0xf8, 0xef, 0x1d, 0x5e, 0x47, 0xb2, 0xe8, 0x06, 0x5b, 0xc8, 0x24,
    0x2b, 0xc1, 0x96, 0xcb, 0xc6, 0x13, 0xe9, 0x08, 0x2d, 0xfd, 0x46, 0x14,
    0x32, 0x39, 0xe3, 0xfd, 0x1e, 0xff, 0xa0, 0xdf, 0xbc, 0x43, 0xbe, 0xc5,
    0x09, 0xff, 0x02, 0xd7, 0x1c, 0x37, 0x26, 0xfb, 0xc0, 0xef, 0xfe, 0x29,
    0x07, 0x25, 0xf9, 0x2d, 0x0e, 0x09, 0xb5, 0xd0, 0xf8, 0xf3, 0x18, 0xef,
    0x3a, 0xee, 0x1c, 0xed, 0x2a, 0xef, 0x0c, 0xf8, 0x25, 0x46, 0xf0, 0xeb,
    0xea, 0xe1, 0xf3, 0xf4, 0x69, 0x1b, 0xdf, 0xd8, 0x1a, 0x51, 0xdf, 0xe8,
    0xf7, 0xab, 0x8a, 0xee, 0x25, 0x3f, 0x30, 0xea, 0x15, 0x19, 0x56, 0xc9,
    0xd7, 0x1c, 0xc4, 0x0b, 0x29, 0x22, 0xf5, 0x1b, 0x0d, 0x12, 0xcd, 0xfe,
    0x12, 0x00, 0xb1, 0xcb, 0x0b, 0xf2, 0xd6, 0xde, 0xc0, 0xf7, 0x48, 0xeb,
    0x0a, 0x2a, 0x18, 0xf6, 0x01, 0x00, 0x00, 0xf2, 0xd7, 0x32, 0xcf, 0x2c,
    0xd4, 0xf9, 0x25, 0x09, 0x43, 0xb5, 0xb6, 0xae, 0x07, 0xd7, 0x19, 0xe9,
    0xf2, 0x2c, 0x3d, 0x00, 0xb4, 0xe3, 0xf6, 0x06, 0x23, 0xb5, 0x28, 0x8c,
    0xde, 0x43, 0xf5, 0xea, 0x13, 0xe0, 0xa0, 0xa6, 0xe9, 0xd1, 0x05, 0x17,
    0xe3, 0x04, 0x1d, 0x0d, 0xa3, 0xe2, 0x1a, 0xfe, 0x30, 0xd5, 0xf0, 0xc9,
    0x03, 0xcf, 0xf9, 0xca, 0xf5, 0xfb, 0x03, 0xe0, 0xf9, 0xee, 0x09, 0x00,
    0x1a, 0xef, 0xfd, 0x0f, 0xfc, 0x0b, 0xcd, 0xf6, 0xf6, 0xb3, 0x0b, 0xc9,
    0xce, 0x20, 0xf5, 0x02, 0x2d, 0xd4, 0x9f, 0xb5, 0x07, 0xfd, 0x0e, 0xec,
    0xe6, 0x35, 0x3e, 0x00, 0xea, 0xf5, 0x4b, 0x16, 0x12, 0xba, 0xfd, 0x89,
    0xdf, 0x10, 0x35, 0x12, 0xf6, 0xe4, 0xe3, 0x81, 0x0e, 0x16, 0xf8, 0xfb,
    0x1e, 0x0e, 0x1e, 0xdb, 0xfa, 0x28, 0x10, 0x01, 0x10, 0xbb, 0x29, 0xcc,
    0xb3, 0xe3, 0x21, 0x01, 0x05, 0xc6, 0xe9, 0x25, 0x6f, 0x24, 0xbe, 0x37,
    0x1c, 0x0e, 0xec, 0xf0, 0x29, 0x10, 0xf6, 0x04, 0xe1, 0x88, 0x24, 0xb6,
    0xab, 0x02, 0x1d, 0x06, 0x26, 0xad, 0xe7, 0xd7, 0x15, 0x00, 0x9b, 0x18,
    0x16, 0x33, 0x56, 0x17, 0xdf, 0xcd, 0xfe, 0xf0, 0x11, 0xec, 0x4c, 0xad,
    0xe5, 0x35, 0x16, 0xfe, 0x02, 0xc4, 0xc2, 0xb2, 0x31, 0xfc, 0xd3, 0xf3,
    0x13, 0x16, 0x38, 0x0b, 0xf0, 0x0b, 0x15, 0xe4, 0xe9, 0xff, 0x01, 0xe7,
    0xed, 0x0d, 0x41, 0xe4, 0x26, 0xd8, 0xd4, 0x31, 0x41, 0x3b, 0x97, 0xfe,
    0x24, 0xf8, 0x11, 0x16, 0xfc, 0x09, 0xfd, 0xdd, 0x2c, 0xee, 0xde, 0xf0,
    0xbf, 0x16, 0xf6, 0x02, 0x24, 0x34, 0x49, 0x0a, 0x46, 0x01, 0x02, 0xed,
    0x00, 0xdd, 0x91, 0xa5, 0xc4, 0x2a, 0xb3, 0xc7, 0x23, 0x30, 0x01, 0x5e,
    0x06, 0xc0, 0xb6, 0xbb, 0xfc, 0xfe, 0x24, 0x1c, 0x1c, 0x20, 0x14, 0x18,
    0x13, 0xbe, 0x0d, 0xda, 0x18, 0xf9, 0xd5, 0xff, 0x14, 0x48, 0x06, 0x6d,
    0xb2, 0xdd, 0x07, 0x23, 0x1e, 0x2a, 0x09, 0x03, 0xfe, 0x24, 0x4b, 0x3c,
    0x40, 0xeb, 0xca, 0x2e, 0xf7, 0x3e, 0xbf, 0xf5, 0x22, 0x4f, 0x09, 0x61,
    0xbb, 0xe2, 0x21, 0xfd, 0xd3, 0x55, 0x42, 0x15, 0x36, 0x22, 0x07, 0x30,
    0xe4, 0xa6, 0x8c, 0xb1, 0x8f, 0x12, 0x04, 0xbf, 0x23, 0x53, 0xed, 0x67,
    0xf7, 0xab, 0xae, 0xe4, 0xed, 0x21, 0x00, 0xe3, 0x58, 0xd3, 0xe3, 0x0f,
    0x2d, 0xe2, 0x0d, 0xc1, 0xe5, 0x1b, 0x06, 0x1c, 0x24, 0x16, 0xe7, 0x37,
    0x90, 0xd0, 0xf0, 0xf3, 0x3f, 0x11, 0x3b, 0xed, 0x31, 0x32, 0x0a, 0x14,
    0x16, 0xc5, 0xfa, 0xe1, 0x1b, 0x01, 0xae, 0x08, 0xde, 0x7f, 0xee, 0x43,
    0xf6, 0xb0, 0x0a, 0xc6, 0x2d, 0x4d, 0x0a, 0x37, 0x66, 0xd4, 0x0f, 0x0c,
    0xd9, 0xbc, 0x9a, 0xf5, 0xca, 0x1e, 0xd4, 0xeb, 0xf6, 0x6d, 0x06, 0x18,
    0xd0, 0xc8, 0xab, 0xdc, 0x16, 0x14, 0x12, 0x2f, 0x12, 0xf4, 0xe1, 0x1f,
    0x13, 0x13, 0xe0, 0xf4, 0xd8, 0x1f, 0xfe, 0xe8, 0x2f, 0x2b, 0xf1, 0x2c,
    0xf0, 0xb6, 0xf4, 0x1b, 0x20, 0x02, 0x30, 0xd1, 0x25, 0xfe, 0x1f, 0x3d,
    0x09, 0x22, 0x16, 0x3a, 0x42, 0x11, 0x07, 0xc7, 0xc8, 0x6d, 0x00, 0x2e,
    0xc3, 0xe7, 0x38, 0xec, 0x29, 0xdf, 0x1a, 0x11, 0x25, 0x30, 0x59, 0xdb,
    0x34, 0x1e, 0x00, 0xca, 0x59, 0xe1, 0xd5, 0x0c, 0x1a, 0xf8, 0xf8, 0xf4,
    0xfe, 0xd0, 0xb0, 0x1d, 0x4c, 0x22, 0xf0, 0xcf, 0xe0, 0x1f, 0x24, 0xe1,
    0x0c, 0x3d, 0xfc, 0xd0, 0x0d, 0xf1, 0xa8, 0xf2, 0xe5, 0x4b, 0xdf, 0xb8,
    0x45, 0xa2, 0xdd, 0xd0, 0xe9, 0xd7, 0xff, 0x08, 0xad, 0xe8, 0x56, 0xda,
    0x44, 0x0f, 0x1f, 0x30, 0xf8, 0xd0, 0xee, 0xcc, 0x2a, 0x0a, 0xd4, 0xb9,
    0x1e, 0xe1, 0xc6, 0x33, 0xc9, 0x38, 0x29, 0x13, 0x05, 0x0c, 0x13, 0xc1,
    0x38, 0x36, 0xf3, 0x34, 0x58, 0x04, 0xa3, 0xcc, 0xea, 0x1e, 0x13, 0x25,
    0xc4, 0xf6, 0xeb, 0xc3, 0xd8, 0x1c, 0xd2, 0xbc, 0xd6, 0x38, 0x2a, 0xcc,
    0x05, 0x0f, 0xe9, 0xe7, 0x3c, 0xf2, 0xba, 0xd3, 0xfa, 0x51, 0xd1, 0xd2,
    0x3d, 0xf2, 0xed, 0x1d, 0xe4, 0x05, 0x31, 0xcd, 0xca, 0x2b, 0x7f, 0xfc,
    0x18, 0x05, 0x00, 0xd5, 0xe1, 0xd3, 0xdb, 0xf9, 0x06, 0xdc, 0xdd, 0xb9,
    0xfe, 0xf3, 0xc8, 0x3f, 0x0c, 0xd6, 0x35, 0x50, 0x3c, 0x28, 0x0f, 0xc0,
    0x43, 0xd1, 0xd0, 0x40, 0x61, 0xd9, 0xec, 0x08, 0x1f, 0x60, 0xb1, 0x09,
    0x28, 0xf2, 0x9a, 0xc9, 0x00, 0x00, 0x2b, 0x14, 0xfc, 0x09, 0x14, 0xf6,
    0x06, 0xde, 0xcf, 0xdd, 0x42, 0xd9, 0x06, 0xf5, 0x11, 0x5b, 0x06, 0x04,
    0xf2, 0xd4, 0xa9, 0x32, 0xd1, 0x11, 0x23, 0xf5, 0xdf, 0xe8, 0x4e, 0xe7,
    0xdb, 0x01, 0xc3, 0x12, 0x36, 0xaa, 0x12, 0xfd, 0x26, 0xd0, 0xd4, 0xb3,
    0x16, 0xfd, 0x22, 0xe6, 0x06, 0xf4, 0xcf, 0xfd, 0xff, 0x3d, 0x27, 0xf7,
    0x2e, 0x03, 0x01, 0x35, 0x57, 0xd2, 0x02, 0xfa, 0x2e, 0xe8, 0x24, 0xf0,
    0x08, 0x07, 0xe2, 0x2b, 0x0f, 0xfa, 0xe6, 0x0e, 0xee, 0x13, 0x0d, 0xcb,
    0xe8, 0x24, 0xf2, 0xff, 0x27, 0xe9, 0x0b, 0xdc, 0x06, 0xc0, 0xeb, 0x98,
    0x1d, 0x11, 0xfa, 0x2e, 0xb8, 0xe0, 0xf5, 0xf9, 0xba, 0xe5, 0x59, 0xee,
    0xd9, 0x21, 0x2c, 0x10, 0x0a, 0xe1, 0x41, 0x26, 0xe3, 0xe7, 0x39, 0x81,
    0x16, 0x22, 0xd6, 0xfc, 0x25, 0xd6, 0xcc, 0x0b, 0xed, 0x11, 0x1e, 0xed,
    0x05, 0x2d, 0x3a, 0x2d, 0x1c, 0xcb, 0xed, 0x0c, 0xe4, 0xeb, 0x11, 0xe9,
    0x09, 0xf6, 0xd7, 0xfd, 0xed, 0x19, 0xe4, 0x0b, 0xdb, 0xf2, 0x4c, 0x04,
    0xee, 0x26, 0x33, 0xde, 0x15, 0xb1, 0xfd, 0x1d, 0xd0, 0xea, 0x2d, 0xc4,
    0xf5, 0x13, 0xeb, 0xf2, 0xcf, 0xe8, 0x06, 0x30, 0xa9, 0xdc, 0x5c, 0xe7,
    0xe9, 0xec, 0x02, 0xce, 0xed, 0xc3, 0x28, 0x00, 0xe3, 0xf9, 0xf5, 0xbd,
    0x1c, 0x2a, 0xe0, 0xe5, 0xe8, 0xdc, 0xe6, 0x19, 0xc3, 0x09, 0x5a, 0x22,
    0xf9, 0x06, 0x10, 0x28, 0x5a, 0xca, 0x05, 0x0d, 0xec, 0x01, 0xf7, 0xd4,
    0x10, 0x2e, 0xcc, 0x05, 0x04, 0xf8, 0xef, 0xd1, 0xb3, 0xeb, 0x26, 0xf5,
    0x0e, 0xfa, 0x08, 0xfc, 0xf9, 0xe3, 0xf5, 0x0d, 0xf0, 0xc7, 0x2a, 0xbc,
    0x0c, 0x1b, 0x1b, 0x20, 0xc5, 0xf5, 0x17, 0x29, 0xcc, 0xe0, 0x2d, 0xd8,
    0xd5, 0x07, 0x3b, 0x0e, 0xd0, 0xe0, 0x49, 0x15, 0xec, 0xdd, 0x07, 0xa1,
    0xfa, 0x2a, 0xfd, 0x09, 0xfb, 0x29, 0x28, 0x4a, 0xfd, 0xe5, 0x14, 0x23,
    0x0a, 0xe2, 0x9c, 0xcc, 0xf9, 0x2e, 0xca, 0xf4, 0xf2, 0x33, 0xec, 0xfc,
    0xf3, 0xd7, 0xe3, 0xf5, 0x10, 0x04, 0xf7, 0xec, 0xfb, 0x0d, 0x24, 0x27,
    0x17, 0xe7, 0xb2, 0xed, 0x34, 0x05, 0xdf, 0x02, 0x04, 0x60, 0xba, 0x3a,
    0xdb, 0xc4, 0x06, 0x01, 0x01, 0x13, 0x18, 0x0d, 0x14, 0x31, 0x32, 0x46,
    0x27, 0xd6, 0xc7, 0x21, 0x3d, 0x18, 0xd3, 0xcf, 0x29, 0x55, 0x0e, 0x4c,
    0x0c, 0xce, 0x08, 0x05, 0xf2, 0xfd, 0xf3, 0x25, 0x26, 0xd9, 0x28, 0x16,
    0xf0, 0xb7, 0xa1, 0xde, 0x07, 0x35, 0xf1, 0xd7, 0x06, 0x37, 0xc4, 0x46,
    0xdf, 0xdd, 0xfc, 0xd3, 0x15, 0x20, 0x0a, 0x0b, 0x21, 0x1c, 0x3d, 0x04,
    0xf8, 0xfd, 0xd7, 0x20, 0x52, 0x0e, 0xee, 0xc4, 0x0f, 0x55, 0xb4, 0x59,
    0x01, 0xc2, 0xe8, 0x18, 0xee, 0xf4, 0x14, 0x0a, 0x0e, 0xf6, 0x11, 0x16,
    0x11, 0xdb, 0x11, 0x0d, 0x13, 0x43, 0xe1, 0xe4, 0xe6, 0x42, 0xc3, 0x33,
    0xcb, 0xd1, 0x25, 0x11, 0x0d, 0x37, 0x1e, 0x0b, 0x51, 0xf8, 0x24, 0xe3,
    0x23, 0xe8, 0x81, 0xe7, 0x16, 0xfb, 0xf5, 0xf8, 0xf8, 0x3c, 0xe4, 0x34,
    0x12, 0x99, 0xb5, 0xd9, 0xf6, 0xf9, 0xf5, 0x03, 0x44, 0xe3, 0xf8, 0x21,
    0x0c, 0x11, 0xdd, 0xdb, 0x4b, 0x3e, 0xf0, 0x05, 0x01, 0x44, 0xd1, 0x56,
    0xbf, 0xc1, 0xd0, 0xfa, 0x38, 0xee, 0xfc, 0xe6, 0x11, 0x1e, 0x13, 0xf5,
    0x0d, 0x09, 0xe0, 0x1e, 0x49, 0x44, 0xdb, 0x29, 0x10, 0x1f, 0xd1, 0x50,
    0x0e, 0xf8, 0x2e, 0xeb, 0xec, 0x0b, 0x0a, 0xe5, 0xd2, 0x18, 0x3b, 0x04,
    0x39, 0x38, 0xe4, 0x28, 0x53, 0x02, 0xd2, 0xcd, 0x1d, 0xff, 0xbc, 0x2e,
    0x0e, 0xe0, 0xd9, 0x0f, 0xdf, 0x32, 0xf9, 0xea, 0xe0, 0xe7, 0x42, 0x29,
    0x25, 0x3f, 0xfa, 0x19, 0x31, 0xc5, 0xc7, 0xe0, 0x04, 0xff, 0xe3, 0xd6,
    0x23, 0xd9, 0xe3, 0x13, 0xca, 0xf8, 0xf5, 0x1c, 0xb2, 0xe1, 0x10, 0x1c,
    0xd9, 0x09, 0xeb, 0xf5, 0x1a, 0xab, 0x05, 0x30, 0xe4, 0x0a, 0xe2, 0xb3,
    0xfd, 0xd2, 0xd1, 0x41, 0x01, 0x04, 0x1f, 0x02, 0xe7, 0x33, 0x2e, 0x2d,
    0x3e, 0xe2, 0xea, 0xed, 0x4d, 0xe2, 0xbb, 0xf5, 0x11, 0x32, 0x05, 0x04,
    0x03, 0xf6, 0xc5, 0xfe, 0x26, 0xfc, 0xfb, 0xf4, 0xa9, 0x23, 0x1c, 0x15,
    0x14, 0xef, 0xe9, 0x02, 0x1e, 0x08, 0xb9, 0xdd, 0x01, 0xe1, 0xdb, 0xc4,
    0x39, 0xce, 0xea, 0x1f, 0xcd, 0x2c, 0x00, 0xf5, 0x81, 0xf6, 0x52, 0xdd,
    0xfe, 0x22, 0x08, 0x27, 0x36, 0xcf, 0xf8, 0x0f, 0xed, 0xcd, 0x1f, 0xc6,
    0x18, 0x08, 0x1f, 0xf7, 0xce, 0xfe, 0x06, 0x44, 0xf5, 0x02, 0x16, 0xd3,
    0xfa, 0x0e, 0xc7, 0x09, 0x31, 0x24, 0xd6, 0xd7, 0x0c, 0x0d, 0xc3, 0xfc,
    0xf2, 0x0f, 0xa9, 0xf4, 0xea, 0xdd, 0xd8, 0x0d, 0xcb, 0x2b, 0x6a, 0xe0,
    0xdb, 0x2c, 0xd9, 0x25, 0x11, 0xd6, 0xf3, 0x11, 0xc1, 0x37, 0xac, 0xd1,
    0x0a, 0xd0, 0xe7, 0xe6, 0xe0, 0xf2, 0x1f, 0xea, 0x97, 0xe6, 0x2d, 0x1e,
    0x30, 0x4a, 0xec, 0xf7, 0x0c, 0xdf, 0xd4, 0x07, 0xc1, 0x22, 0x0d, 0xd3,
    0x09, 0x16, 0xd6, 0x05, 0x72, 0xf7, 0xff, 0xff, 0x04, 0x00, 0x00, 0x00,
    0xa0, 0x00, 0x00, 0x00, 0x6d, 0xfa, 0xff, 0xff, 0x5c, 0x04, 0x00, 0x00,
    0x93, 0x06, 0x00, 0x00, 0x6d, 0xfe, 0xff, 0xff, 0x9b, 0xfe, 0xff, 0xff,
    0x6c, 0xff, 0xff, 0xff, 0xa5, 0xfd, 0xff, 0xff, 0x53, 0x00, 0x00, 0x00,
    0xe8, 0x05, 0x00, 0x00, 0xc2, 0xfc, 0xff, 0xff, 0x81, 0x06, 0x00, 0x00,
    0x25, 0xff, 0xff, 0xff, 0xa5, 0xff, 0xff, 0xff, 0x7b, 0xff, 0xff, 0xff,
    0x64, 0xff, 0xff, 0xff, 0xd7, 0xff, 0xff, 0xff, 0x9f, 0x05, 0x00, 0x00,
    0xae, 0x00, 0x00, 0x00, 0xab, 0x05, 0x00, 0x00, 0xb1, 0x08, 0x00, 0x00,
    0x53, 0x10, 0x00, 0x00, 0xea, 0x04, 0x00, 0x00, 0xdb, 0x04, 0x00, 0x00,
    0x52, 0x01, 0x00, 0x00, 0x62, 0x00, 0x00, 0x00, 0xb7, 0xfe, 0xff, 0xff,
    0x16, 0xfe, 0xff, 0xff, 0x6e, 0xff, 0xff, 0xff, 0x91, 0x05, 0x00, 0x00,
    0x2a, 0xfe, 0xff, 0xff, 0x93, 0x01, 0x00, 0x00, 0x38, 0x01, 0x00, 0x00,
    0x21, 0xfe, 0xff, 0xff, 0x9b, 0x03, 0x00, 0x00, 0xcc, 0xfb, 0xff, 0xff,
    0x50, 0xfa, 0xff, 0xff, 0x3c, 0x06, 0x00, 0x00, 0xee, 0x07, 0x00, 0x00,
    0x56, 0x02, 0x00, 0x00, 0x05, 0x06, 0x00, 0x00, 0x1e, 0xf8, 0xff, 0xff,
    0x04, 0x00, 0x00, 0x00, 0xc0, 0x03, 0x00, 0x00, 0xa2, 0xc0, 0xcd, 0xe6,
    0x48, 0xcd, 0x5a, 0xe7, 0x0b, 0x48, 0x0a, 0xab, 0x59, 0x09, 0xf6, 0xfa,
    0x9f, 0x1d, 0xc3, 0xf6, 0x02, 0x63, 0x43, 0xdb, 0x2d, 0xca, 0xea, 0xe6,
    0xbf, 0x40, 0x07, 0xb6, 0x37, 0xda, 0x52, 0x81, 0xae, 0xa6, 0xdc, 0x33,
    0x26, 0xef, 0x4c, 0x25, 0x07, 0xcf, 0x16, 0x41, 0xec, 0x2e, 0x2c, 0xe3,
    0xfc, 0xb3, 0x13, 0x18, 0x63, 0x11, 0x33, 0xc8, 0x09, 0xd2, 0x06, 0x11,
    0xc7, 0xf8, 0x81, 0x25, 0xfe, 0xd5, 0x33, 0x07, 0xf9, 0x41, 0x0d, 0x3a,
    0x50, 0xfa, 0x17, 0x0a, 0xf8, 0xdc, 0x2d, 0x3c, 0xd2, 0xb8, 0xdc, 0x5e,
    0x42, 0x9f, 0xf5, 0x4b, 0xbb, 0xea, 0xbf, 0x97, 0x1b, 0xe8, 0xa7, 0x08,
    0x57, 0xf9, 0x3a, 0x29, 0xf9, 0x24, 0xa0, 0x17, 0x39, 0xd8, 0x4a, 0x7f,
    0xda, 0xe3, 0x9c, 0xe8, 0xe6, 0x56, 0x23, 0x50, 0xf2, 0x59, 0xf3, 0xba,
    0xee, 0x48, 0xa5, 0x03, 0x32, 0x8b, 0x19, 0x0f, 0xd0, 0xa1, 0x95, 0xbd,
    0x00, 0x14, 0x3e, 0x56, 0x42, 0x10, 0x23, 0x3a, 0xd9, 0x37, 0x9c, 0x72,
    0xf0, 0x1c, 0x07, 0x14, 0xe6, 0x0f, 0xa3, 0xd8, 0xe8, 0x7f, 0x46, 0xfd,
    0x2a, 0x29, 0x5d, 0xe0, 0x1a, 0xda, 0x1b, 0x7f, 0x3a, 0xe0, 0x58, 0x02,
    0x05, 0x9a, 0xe0, 0xa9, 0x79, 0xfb, 0xa0, 0x2a, 0x47, 0xcd, 0x1e, 0x57,
    0xd0, 0xb2, 0x10, 0x6f, 0x0f, 0xc8, 0x64, 0x5c, 0x0b, 0x17, 0x35, 0x2b,
    0x5a, 0xe5, 0x73, 0x50, 0xa6, 0xd6, 0x53, 0xfa, 0xaf, 0x17, 0xfd, 0x8d,
    0xf8, 0x55, 0x8a, 0x5b, 0x5e, 0x81, 0xe8, 0x33, 0x8f, 0xdc, 0x3a, 0x5c,
    0x47, 0xa3, 0xe5, 0x5c, 0x98, 0x29, 0x55, 0xc5, 0x0b, 0xca, 0xf3, 0xee,
    0xaf, 0x41, 0xf6, 0xaa, 0x38, 0x21, 0x11, 0x83, 0x81, 0xab, 0x36, 0xce,
    0x3a, 0x2f, 0x05, 0xdc, 0x23, 0xfe, 0x2e, 0xd2, 0x45, 0x09, 0xd4, 0xf6,
    0xb1, 0x3e, 0x50, 0x2f, 0x08, 0x54, 0xfd, 0xc8, 0xd2, 0x20, 0x47, 0x18,
    0xa0, 0x54, 0xcd, 0xfd, 0x08, 0xe3, 0x5b, 0xfd, 0x16, 0x12, 0xbd, 0xd9,
    0xee, 0x0b, 0x5b, 0xf8, 0xed, 0xdc, 0x16, 0xcb, 0x1f, 0x06, 0xe4, 0xd9,
    0xf7, 0x4a, 0x4a, 0x2a, 0xef, 0x5a, 0x13, 0xd4, 0xf9, 0x36, 0x2f, 0xe3,
    0x57, 0x19, 0x7c, 0xe2, 0x98, 0x3e, 0xb7, 0xbb, 0xf5, 0x09, 0x31, 0x81,
    0x99, 0x93, 0xae, 0xa7, 0xfc, 0x81, 0x5e, 0xe4, 0x37, 0xed, 0xb7, 0x99,
    0xb1, 0xc1, 0xa5, 0x2b, 0x9d, 0x5d, 0xff, 0xbd, 0xd9, 0x9e, 0x63, 0xf0,
    0xbe, 0x1a, 0xb9, 0xeb, 0x9d, 0x8d, 0x82, 0x09, 0x41, 0x55, 0x67, 0xaf,
    0xdc, 0x97, 0x2b, 0xab, 0xc2, 0xba, 0x87, 0xed, 0x63, 0xcb, 0x14, 0xdc,
    0x10, 0xe7, 0xc4, 0x2c, 0x21, 0x21, 0x7e, 0xc4, 0xae, 0x9e, 0x25, 0x0f,
    0xdf, 0x9f, 0xd1, 0x6f, 0x52, 0xd7, 0xef, 0x69, 0x09, 0x3d, 0xae, 0xfc,
    0x55, 0x27, 0xc5, 0xce, 0xfe, 0x58, 0x2e, 0x02, 0x06, 0x36, 0x7f, 0x03,
    0x6f, 0x0b, 0x41, 0x12, 0xc1, 0x57, 0x2d, 0x55, 0x55, 0xbb, 0x39, 0x35,
    0xcb, 0xab, 0xef, 0xc1, 0x73, 0xff, 0x34, 0xe4, 0xf3, 0xc6, 0x3a, 0xe0,
    0xb2, 0xf0, 0x02, 0xf9, 0x7f, 0x08, 0x30, 0x7a, 0x02, 0x2e, 0x9e, 0x07,
    0xd9, 0xe7, 0x21, 0x18, 0xaf, 0xc4, 0xec, 0x55, 0x28, 0xc6, 0x51, 0x81,
    0xe7, 0xd5, 0xf6, 0xa7, 0x1e, 0x5e, 0x38, 0x61, 0x18, 0x0f, 0x05, 0xe2,
    0x54, 0x2a, 0x23, 0xaa, 0x4c, 0xcc, 0x4d, 0x02, 0xda, 0x1e, 0xd0, 0xcd,
    0x38, 0x26, 0x44, 0xc1, 0xf7, 0xc6, 0xd6, 0xb0, 0x7f, 0x66, 0x32, 0xf5,
    0xd2, 0xd3, 0x11, 0x58, 0x32, 0xc2, 0x11, 0x71, 0xe8, 0xcd, 0x02, 0x32,
    0x10, 0xf0, 0xab, 0xe1, 0xe9, 0x27, 0x2d, 0x24, 0x0d, 0xad, 0x9b, 0x77,
    0xfe, 0x17, 0x74, 0x11, 0xc2, 0x1d, 0xca, 0x3f, 0xf4, 0x46, 0x78, 0x34,
    0x91, 0x0a, 0xae, 0x53, 0x1f, 0x9e, 0x34, 0x15, 0x33, 0xc3, 0xf6, 0x81,
    0x4a, 0x44, 0xd4, 0x4b, 0x86, 0x4e, 0x20, 0xfa, 0x06, 0x19, 0x36, 0x0c,
    0x08, 0x0d, 0x46, 0xbe, 0xe0, 0xd5, 0x1b, 0x06, 0x26, 0x19, 0x05, 0xd5,
    0xc9, 0x93, 0x1c, 0xb5, 0x0b, 0x19, 0xca, 0x2c, 0xfb, 0x62, 0x93, 0x6b,
    0x24, 0x08, 0x4d, 0x02, 0x23, 0xb5, 0xe5, 0x3c, 0xed, 0x51, 0x95, 0xb8,
    0xf6, 0x46, 0xca, 0x5d, 0x11, 0x42, 0xc7, 0x74, 0x07, 0xee, 0x5e, 0x26,
    0x81, 0x1c, 0x34, 0x33, 0xd4, 0x43, 0x55, 0x49, 0xcb, 0x46, 0xab, 0x6d,
    0x23, 0xa3, 0x29, 0x90, 0x9b, 0xc2, 0x2c, 0x94, 0x4b, 0x51, 0x07, 0x3b,
    0x00, 0x22, 0xeb, 0xa5, 0x44, 0x68, 0x3b, 0xb7, 0x4d, 0xf4, 0x6a, 0xcc,
    0x8e, 0x4f, 0xec, 0x81, 0x7f, 0xa6, 0x7a, 0xd2, 0x2c, 0x0b, 0xa9, 0x97,
    0x3c, 0xfa, 0x3e, 0xb5, 0xee, 0x11, 0x10, 0x79, 0x2d, 0xb3, 0x2d, 0x78,
    0xec, 0xde, 0xc1, 0xb1, 0x1d, 0xf4, 0x2b, 0x57, 0xec, 0xd9, 0x27, 0x27,
    0x2c, 0xd7, 0x81, 0xec, 0x28, 0xfa, 0x6e, 0xd5, 0x0d, 0x00, 0xfc, 0xfc,
    0x43, 0x0f, 0x33, 0xe5, 0x11, 0xb9, 0xe8, 0xc5, 0x5c, 0xea, 0xf3, 0x86,
    0x4a, 0xc5, 0x30, 0x9a, 0x1c, 0x6e, 0x69, 0x40, 0x9a, 0x55, 0xdc, 0x28,
    0x34, 0x17, 0xef, 0x94, 0x3d, 0xff, 0x7f, 0xe7, 0xae, 0x07, 0x82, 0xb5,
    0x03, 0x2a, 0xd8, 0x9b, 0xb4, 0xe5, 0x29, 0x01, 0x57, 0xcf, 0xf7, 0x05,
    0x2f, 0x72, 0xaf, 0x47, 0x35, 0x3a, 0x2f, 0x7f, 0x39, 0xd3, 0xe7, 0xf0,
    0xec, 0xf4, 0xaa, 0x21, 0x10, 0x14, 0xe7, 0x6d, 0x13, 0x9d, 0xa8, 0x57,
    0xfd, 0xb6, 0x5e, 0x79, 0xce, 0xbf, 0xac, 0x7a, 0x01, 0x37, 0x34, 0x36,
    0xcc, 0xd1, 0x40, 0xd5, 0x34, 0xd9, 0xc2, 0x18, 0xd9, 0x37, 0x9f, 0x8d,
    0x3d, 0xf0, 0xf2, 0x42, 0x27, 0x50, 0xd5, 0xed, 0x58, 0x22, 0x4a, 0xaf,
    0x44, 0xf1, 0x19, 0x81, 0xc4, 0x47, 0x2b, 0x0c, 0x56, 0xe9, 0xdf, 0x11,
    0x90, 0x8a, 0xe6, 0xcf, 0x61, 0xdc, 0xbf, 0xdb, 0x0c, 0x6b, 0xce, 0xc8,
    0x67, 0x02, 0x46, 0x1e, 0xd0, 0x4d, 0x81, 0xf0, 0x29, 0xa9, 0x5c, 0x20,
    0x25, 0x25, 0xca, 0x38, 0x30, 0xc7, 0xf4, 0x53, 0x27, 0x3c, 0xd5, 0x26,
    0x2b, 0x50, 0xf4, 0x2f, 0xe3, 0xd6, 0x44, 0x1a, 0xa2, 0xee, 0x51, 0x41,
    0x0e, 0xbe, 0x58, 0xca, 0x56, 0x63, 0xed, 0x28, 0xe9, 0xf3, 0xd2, 0x3a,
    0x83, 0x61, 0xf8, 0x0d, 0xe4, 0x00, 0x3c, 0x43, 0xe7, 0x37, 0x7f, 0xa9,
    0xfc, 0x17, 0xa1, 0x25, 0x1e, 0xb6, 0x29, 0xbb, 0xe6, 0xad, 0xa5, 0x9d,
    0x24, 0xd0, 0x9a, 0x8d, 0x2f, 0x81, 0xca, 0xf2, 0x51, 0xf2, 0x19, 0x96,
    0x8b, 0xc0, 0xb4, 0x28, 0x22, 0xdc, 0xdf, 0xfd, 0x36, 0x1b, 0x98, 0x46,
    0x18, 0x0c, 0xa6, 0xb5, 0x3c, 0x73, 0x6a, 0x88, 0xbb, 0x8d, 0x9d, 0xd8,
    0x0a, 0xe6, 0x0d, 0x92, 0x30, 0x4f, 0x1d, 0x3c, 0xce, 0xe2, 0xe1, 0x4e,
    0x29, 0x32, 0x43, 0x1a, 0xea, 0xaa, 0xab, 0xe2, 0x6b, 0xd1, 0xde, 0xf3,
    0x31, 0xd2, 0x20, 0xf6, 0x43, 0xdf, 0xfd, 0x7f, 0x48, 0xd1, 0x55, 0xd6,
    0xcd, 0x38, 0x9d, 0x74, 0x33, 0x49, 0x61, 0x52, 0xea, 0xfb, 0xff, 0xff,
    0x04, 0x00, 0x00, 0x00, 0x60, 0x00, 0x00, 0x00, 0x3b, 0x00, 0x00, 0x00,
    0x08, 0x00, 0x00, 0x00, 0x4d, 0x06, 0x00, 0x00, 0x1d, 0x06, 0x00, 0x00,
    0x21, 0x01, 0x00, 0x00, 0xf6, 0xff, 0xff, 0xff, 0xe1, 0xff, 0xff, 0xff,
    0x95, 0x02, 0x00, 0x00, 0x00, 0x00, 0x00, 0x00, 0x12, 0x06, 0x00, 0x00,
    0x2a, 0x02, 0x00, 0x00, 0xe9, 0xff, 0xff, 0xff, 0x1c, 0x01, 0x00, 0x00,
    0xd4, 0x00, 0x00, 0x00, 0x47, 0x02, 0x00, 0x00, 0xc4, 0x00, 0x00, 0x00,
    0x31, 0x01, 0x00, 0x00, 0x24, 0x01, 0x00, 0x00, 0xab, 0x01, 0x00, 0x00,
    0x76, 0xff, 0xff, 0xff, 0x23, 0x03, 0x00, 0x00, 0x0e, 0x00, 0x00, 0x00,
    0x4b, 0xff, 0xff, 0xff, 0x9a, 0x01, 0x00, 0x00, 0x56, 0xfc, 0xff, 0xff,
    0x04, 0x00, 0x00, 0x00, 0x30, 0x00, 0x00, 0x00, 0xc3, 0xce, 0xf2, 0x7f,
    0x5c, 0xce, 0xa2, 0xc0, 0xc9, 0x0e, 0x1f, 0xa7, 0x62, 0x05, 0x1c, 0xd6,
    0x19, 0x15, 0x66, 0x9f, 0x45, 0xa1, 0xd9, 0x57, 0x41, 0xbb, 0x81, 0x9a,
    0x9b, 0xf5, 0x22, 0x34, 0x47, 0xc5, 0xe6, 0x5b, 0x05, 0x61, 0xc7, 0x0d,
    0x9d, 0x72, 0x16, 0x1e, 0xc6, 0x35, 0x0f, 0xe7, 0x92, 0xfc, 0xff, 0xff,
    0x04, 0x00, 0x00, 0x00, 0x08, 0x00, 0x00, 0x00, 0x72, 0x00, 0x00, 0x00,
    0x8a, 0xff, 0xff, 0xff, 0xa6, 0xfc, 0xff, 0xff, 0x04, 0x00, 0x00, 0x00,
    0x08, 0x00, 0x00, 0x00, 0x01, 0x00, 0x00, 0x00, 0x02, 0x00, 0x00, 0x00,
    0x18, 0xe2, 0xff, 0xff, 0xbe, 0xfc, 0xff, 0xff, 0x04, 0x00, 0x00, 0x00,
    0x04, 0x00, 0x00, 0x00, 0x14, 0x00, 0x00, 0x00, 0xce, 0xfc, 0xff, 0xff,
    0x04, 0x00, 0x00, 0x00, 0x04, 0x00, 0x00, 0x00, 0x3c, 0x00, 0x00, 0x00,
    0xde, 0xfc, 0xff, 0xff, 0x04, 0x00, 0x00, 0x00, 0x04, 0x00, 0x00, 0x00,
    0x01, 0x00, 0x00, 0x00, 0xee, 0xfc, 0xff, 0xff, 0x04, 0x00, 0x00, 0x00,
    0x04, 0x00, 0x00, 0x00, 0x00, 0x00, 0x00, 0x00, 0x5c, 0xe2, 0xff, 0xff,
    0x60, 0xe2, 0xff, 0xff, 0x0f, 0x00, 0x00, 0x00, 0x4d, 0x4c, 0x49, 0x52,
    0x20, 0x43, 0x6f, 0x6e, 0x76, 0x65, 0x72, 0x74, 0x65, 0x64, 0x2e, 0x00,
    0x01, 0x00, 0x00, 0x00, 0x14, 0x00, 0x00, 0x00, 0x00, 0x00, 0x0e, 0x00,
    0x18, 0x00, 0x14, 0x00, 0x10, 0x00, 0x0c, 0x00, 0x08, 0x00, 0x04, 0x00,
    0x0e, 0x00, 0x00, 0x00, 0x14, 0x00, 0x00, 0x00, 0x1c, 0x00, 0x00, 0x00,
    0x8c, 0x03, 0x00, 0x00, 0x90, 0x03, 0x00, 0x00, 0x94, 0x03, 0x00, 0x00,
    0x04, 0x00, 0x00, 0x00, 0x6d, 0x61, 0x69, 0x6e, 0x00, 0x00, 0x00, 0x00,
    0x0d, 0x00, 0x00, 0x00, 0x3c, 0x03, 0x00, 0x00, 0xdc, 0x02, 0x00, 0x00,
    0x84, 0x02, 0x00, 0x00, 0x5c, 0x02, 0x00, 0x00, 0x00, 0x02, 0x00, 0x00,
    0xac, 0x01, 0x00, 0x00, 0x68, 0x01, 0x00, 0x00, 0x24, 0x01, 0x00, 0x00,
    0xe0, 0x00, 0x00, 0x00, 0xac, 0x00, 0x00, 0x00, 0x70, 0x00, 0x00, 0x00,
    0x38, 0x00, 0x00, 0x00, 0x04, 0x00, 0x00, 0x00, 0x62, 0xfd, 0xff, 0xff,
    0x14, 0x00, 0x00, 0x00, 0x00, 0x00, 0x00, 0x09, 0x14, 0x00, 0x00, 0x00,
    0x18, 0x00, 0x00, 0x00, 0x08, 0x00, 0x00, 0x00, 0xa6, 0xfd, 0xff, 0xff,
    0x00, 0x00, 0x80, 0x3f, 0x01, 0x00, 0x00, 0x00, 0x1d, 0x00, 0x00, 0x00,
    0x01, 0x00, 0x00, 0x00, 0x1c, 0x00, 0x00, 0x00, 0x92, 0xfd, 0xff, 0xff,
    0x14, 0x00, 0x00, 0x00, 0x00, 0x00, 0x00, 0x08, 0x10, 0x00, 0x00, 0x00,
    0x14, 0x00, 0x00, 0x00, 0x07, 0x00, 0x00, 0x00, 0x34, 0xe3, 0xff, 0xff,
    0x01, 0x00, 0x00, 0x00, 0x1c, 0x00, 0x00, 0x00, 0x03, 0x00, 0x00, 0x00,
    0x1b, 0x00, 0x00, 0x00, 0x08, 0x00, 0x00, 0x00, 0x07, 0x00, 0x00, 0x00,
    0xc6, 0xfd, 0xff, 0xff, 0x14, 0x00, 0x00, 0x00, 0x00, 0x00, 0x00, 0x08,
    0x14, 0x00, 0x00, 0x00, 0x18, 0x00, 0x00, 0x00, 0x07, 0x00, 0x00, 0x00,
    0x5e, 0xfd, 0xff, 0xff, 0x00, 0x00, 0x00, 0x01, 0x01, 0x00, 0x00, 0x00,
    0x1b, 0x00, 0x00, 0x00, 0x03, 0x00, 0x00, 0x00, 0x1a, 0x00, 0x00, 0x00,
    0x0a, 0x00, 0x00, 0x00, 0x09, 0x00, 0x00, 0x00, 0xfe, 0xfd, 0xff, 0xff,
    0x14, 0x00, 0x00, 0x00, 0x00, 0x00, 0x00, 0x1b, 0x10, 0x00, 0x00, 0x00,
    0x14, 0x00, 0x00, 0x00, 0x06, 0x00, 0x00, 0x00, 0xa0, 0xe3, 0xff, 0xff,
    0x01, 0x00, 0x00, 0x00, 0x1a, 0x00, 0x00, 0x00, 0x02, 0x00, 0x00, 0x00,
    0x19, 0x00, 0x00, 0x00, 0x06, 0x00, 0x00, 0x00, 0x2e, 0xfe, 0xff, 0xff,
    0x14, 0x00, 0x00, 0x00, 0x00, 0x00, 0x00, 0x01, 0x1c, 0x00, 0x00, 0x00,
    0x20, 0x00, 0x00, 0x00, 0x04, 0x00, 0x00, 0x00, 0xf0, 0xfe, 0xff, 0xff,
    0x00, 0x00, 0x00, 0x01, 0x01, 0x00, 0x00, 0x00, 0x01, 0x00, 0x00, 0x00,
    0x01, 0x00, 0x00, 0x00, 0x19, 0x00, 0x00, 0x00, 0x03, 0x00, 0x00, 0x00,
    0x18, 0x00, 0x00, 0x00, 0x0c, 0x00, 0x00, 0x00, 0x0b, 0x00, 0x00, 0x00,
    0x6e, 0xfe, 0xff, 0xff, 0x14, 0x00, 0x00, 0x00, 0x00, 0x00, 0x00, 0x05,
    0x24, 0x00, 0x00, 0x00, 0x28, 0x00, 0x00, 0x00, 0x05, 0x00, 0x00, 0x00,
    0x7e, 0xff, 0xff, 0xff, 0x02, 0x00, 0x00, 0x00, 0x02, 0x00, 0x00, 0x00,
    0x02, 0x00, 0x00, 0x00, 0x02, 0x00, 0x00, 0x00, 0x00, 0x00, 0x00, 0x01,
    0x01, 0x00, 0x00, 0x00, 0x18, 0x00, 0x00, 0x00, 0x01, 0x00, 0x00, 0x00,
    0x17, 0x00, 0x00, 0x00, 0xae, 0xfe, 0xff, 0xff, 0x14, 0x00, 0x00, 0x00,
    0x00, 0x00, 0x00, 0x01, 0x1c, 0x00, 0x00, 0x00, 0x20, 0x00, 0x00, 0x00,
    0x04, 0x00, 0x00, 0x00, 0x70, 0xff, 0xff, 0xff, 0x00, 0x00, 0x00, 0x01,
    0x01, 0x00, 0x00, 0x00, 0x01, 0x00, 0x00, 0x00, 0x01, 0x00, 0x00, 0x00,
    0x17, 0x00, 0x00, 0x00, 0x03, 0x00, 0x00, 0x00, 0x16, 0x00, 0x00, 0x00,
    0x0e, 0x00, 0x00, 0x00, 0x0d, 0x00, 0x00, 0x00, 0xee, 0xfe, 0xff, 0xff,
    0x24, 0x00, 0x00, 0x00, 0x00, 0x00, 0x00, 0x05, 0x34, 0x00, 0x00, 0x00,
    0x38, 0x00, 0x00, 0x00, 0x05, 0x00, 0x00, 0x00, 0x00, 0x00, 0x0e, 0x00,
    0x18, 0x00, 0x17, 0x00, 0x10, 0x00, 0x0c, 0x00, 0x08, 0x00, 0x04, 0x00,
    0x0e, 0x00, 0x00, 0x00, 0x02, 0x00, 0x00, 0x00, 0x02, 0x00, 0x00, 0x00,
    0x02, 0x00, 0x00, 0x00, 0x02, 0x00, 0x00, 0x00, 0x00, 0x00, 0x00, 0x01,
    0x01, 0x00, 0x00, 0x00, 0x16, 0x00, 0x00, 0x00, 0x01, 0x00, 0x00, 0x00,
    0x15, 0x00, 0x00, 0x00, 0x3e, 0xff, 0xff, 0xff, 0x20, 0x00, 0x00, 0x00,
    0x00, 0x00, 0x00, 0x01, 0x28, 0x00, 0x00, 0x00, 0x2c, 0x00, 0x00, 0x00,
    0x04, 0x00, 0x00, 0x00, 0x0c, 0x00, 0x10, 0x00, 0x00, 0x00, 0x0c, 0x00,
    0x08, 0x00, 0x07, 0x00, 0x0c, 0x00, 0x00, 0x00, 0x00, 0x00, 0x00, 0x01,
    0x01, 0x00, 0x00, 0x00, 0x01, 0x00, 0x00, 0x00, 0x01, 0x00, 0x00, 0x00,
    0x15, 0x00, 0x00, 0x00, 0x03, 0x00, 0x00, 0x00, 0x14, 0x00, 0x00, 0x00,
    0x10, 0x00, 0x00, 0x00, 0x0f, 0x00, 0x00, 0x00, 0x00, 0x00, 0x0a, 0x00,
    0x10, 0x00, 0x0c, 0x00, 0x08, 0x00, 0x04, 0x00, 0x0a, 0x00, 0x00, 0x00,
    0x0c, 0x00, 0x00, 0x00, 0x10, 0x00, 0x00, 0x00, 0x03, 0x00, 0x00, 0x00,
    0x01, 0x00, 0x00, 0x00, 0x14, 0x00, 0x00, 0x00, 0x02, 0x00, 0x00, 0x00,
    0x00, 0x00, 0x00, 0x00, 0x13, 0x00, 0x00, 0x00, 0xba, 0xff, 0xff, 0xff,
    0x1c, 0x00, 0x00, 0x00, 0x00, 0x00, 0x00, 0x3b, 0x1c, 0x00, 0x00, 0x00,
    0x20, 0x00, 0x00, 0x00, 0x02, 0x00, 0x00, 0x00, 0x00, 0x00, 0x06, 0x00,
    0x08, 0x00, 0x04, 0x00, 0x06, 0x00, 0x00, 0x00, 0x04, 0x00, 0x00, 0x00,
    0x01, 0x00, 0x00, 0x00, 0x13, 0x00, 0x00, 0x00, 0x04, 0x00, 0x00, 0x00,
    0x12, 0x00, 0x00, 0x00, 0x03, 0x00, 0x00, 0x00, 0x04, 0x00, 0x00, 0x00,
    0x05, 0x00, 0x00, 0x00, 0x00, 0x00, 0x0e, 0x00, 0x1a, 0x00, 0x14, 0x00,
    0x10, 0x00, 0x0c, 0x00, 0x0b, 0x00, 0x04, 0x00, 0x0e, 0x00, 0x00, 0x00,
    0x24, 0x00, 0x00, 0x00, 0x00, 0x00, 0x00, 0x20, 0x24, 0x00, 0x00, 0x00,
    0x28, 0x00, 0x00, 0x00, 0x01, 0x00, 0x00, 0x00, 0x00, 0x00, 0x0e, 0x00,
    0x08, 0x00, 0x00, 0x00, 0x00, 0x00, 0x00, 0x00, 0x00, 0x00, 0x04, 0x00,
    0x0e, 0x00, 0x00, 0x00, 0x01, 0x00, 0x00, 0x00, 0x01, 0x00, 0x00, 0x00,
    0x12, 0x00, 0x00, 0x00, 0x04, 0x00, 0x00, 0x00, 0x11, 0x00, 0x00, 0x00,
    0x01, 0x00, 0x00, 0x00, 0x02, 0x00, 0x00, 0x00, 0x02, 0x00, 0x00, 0x00,
    0x00, 0x00, 0x0e, 0x00, 0x16, 0x00, 0x00, 0x00, 0x10, 0x00, 0x0c, 0x00,
    0x0b, 0x00, 0x04, 0x00, 0x0e, 0x00, 0x00, 0x00, 0x18, 0x00, 0x00, 0x00,
    0x00, 0x00, 0x00, 0x37, 0x18, 0x00, 0x00, 0x00, 0x1c, 0x00, 0x00, 0x00,
    0x00, 0x00, 0x06, 0x00, 0x08, 0x00, 0x07, 0x00, 0x06, 0x00, 0x00, 0x00,
    0x00, 0x00, 0x00, 0x02, 0x01, 0x00, 0x00, 0x00, 0x11, 0x00, 0x00, 0x00,
    0x01, 0x00, 0x00, 0x00, 0x00, 0x00, 0x00, 0x00, 0x01, 0x00, 0x00, 0x00,
    0x1d, 0x00, 0x00, 0x00, 0x01, 0x00, 0x00, 0x00, 0x00, 0x00, 0x00, 0x00,
    0x1e, 0x00, 0x00, 0x00, 0x20, 0x1a, 0x00, 0x00, 0xa4, 0x19, 0x00, 0x00,
    0x4c, 0x19, 0x00, 0x00, 0xf4, 0x18, 0x00, 0x00, 0x9c, 0x18, 0x00, 0x00,
    0x44, 0x18, 0x00, 0x00, 0xd0, 0x17, 0x00, 0x00, 0x4c, 0x17, 0x00, 0x00,
    0xc8, 0x16, 0x00, 0x00, 0x24, 0x15, 0x00, 0x00, 0x98, 0x13, 0x00, 0x00,
    0xdc, 0x10, 0x00, 0x00, 0x80, 0x0e, 0x00, 0x00, 0x84, 0x0c, 0x00, 0x00,
    0xe8, 0x0a, 0x00, 0x00, 0x84, 0x09, 0x00, 0x00, 0x80, 0x08, 0x00, 0x00,
    0x2c, 0x08, 0x00, 0x00, 0xd4, 0x07, 0x00, 0x00, 0x78, 0x07, 0x00, 0x00,
    0xe0, 0x06, 0x00, 0x00, 0xdc, 0x05, 0x00, 0x00, 0x40, 0x05, 0x00, 0x00,
    0x34, 0x04, 0x00, 0x00, 0x90, 0x03, 0x00, 0x00, 0x84, 0x02, 0x00, 0x00,
    0xf0, 0x01, 0x00, 0x00, 0x2c, 0x01, 0x00, 0x00, 0x80, 0x00, 0x00, 0x00,
    0x04, 0x00, 0x00, 0x00, 0x6e, 0xe6, 0xff, 0xff, 0x00, 0x00, 0x00, 0x01,
    0x18, 0x00, 0x00, 0x00, 0x20, 0x00, 0x00, 0x00, 0x3c, 0x00, 0x00, 0x00,
    0x1e, 0x00, 0x00, 0x00, 0x00, 0x00, 0x00, 0x09, 0x50, 0x00, 0x00, 0x00,
    0x02, 0x00, 0x00, 0x00, 0xff, 0xff, 0xff, 0xff, 0x02, 0x00, 0x00, 0x00,
    0x54, 0xe6, 0xff, 0xff, 0x08, 0x00, 0x00, 0x00, 0x10, 0x00, 0x00, 0x00,
    0x01, 0x00, 0x00, 0x00, 0x80, 0xff, 0xff, 0xff, 0xff, 0xff, 0xff, 0xff,
    0x01, 0x00, 0x00, 0x00, 0x00, 0x00, 0x80, 0x3b, 0x1b, 0x00, 0x00, 0x00,
    0x53, 0x74, 0x61, 0x74, 0x65, 0x66, 0x75, 0x6c, 0x50, 0x61, 0x72, 0x74,
    0x69, 0x74, 0x69, 0x6f, 0x6e, 0x65, 0x64, 0x43, 0x61, 0x6c, 0x6c, 0x5f,
    0x31, 0x3a, 0x30, 0x00, 0x02, 0x00, 0x00, 0x00, 0x01, 0x00, 0x00, 0x00,
    0x02, 0x00, 0x00, 0x00, 0xe6, 0xe6, 0xff, 0xff, 0x00, 0x00, 0x00, 0x01,
    0x18, 0x00, 0x00, 0x00, 0x20, 0x00, 0x00, 0x00, 0x3c, 0x00, 0x00, 0x00,
    0x1d, 0x00, 0x00, 0x00, 0x00, 0x00, 0x00, 0x09, 0x80, 0x00, 0x00, 0x00,
    0x02, 0x00, 0x00, 0x00, 0xff, 0xff, 0xff, 0xff, 0x02, 0x00, 0x00, 0x00,
    0xcc, 0xe6, 0xff, 0xff, 0x08, 0x00, 0x00, 0x00, 0x10, 0x00, 0x00, 0x00,
    0x01, 0x00, 0x00, 0x00, 0xe9, 0xff, 0xff, 0xff, 0xff, 0xff, 0xff, 0xff,
    0x01, 0x00, 0x00, 0x00, 0xb8, 0xb9, 0x03, 0x3e, 0x48, 0x00, 0x00, 0x00,
    0x72, 0x74, 0x5f, 0x31, 0x32, 0x5f, 0x32, 0x34, 0x5f, 0x34, 0x30, 0x5f,
    0x64, 0x32, 0x34, 0x5f, 0x31, 0x2f, 0x6f, 0x75, 0x74, 0x70, 0x75, 0x74,
    0x5f, 0x30, 0x5f, 0x31, 0x2f, 0x4d, 0x61, 0x74, 0x4d, 0x75, 0x6c, 0x3b,
    0x72, 0x74, 0x5f, 0x31, 0x32, 0x5f, 0x32, 0x34, 0x5f, 0x34, 0x30, 0x5f,
    0x64, 0x32, 0x34, 0x5f, 0x31, 0x2f, 0x6f, 0x75, 0x74, 0x70, 0x75, 0x74,
    0x5f, 0x30, 0x5f, 0x31, 0x2f, 0x42, 0x69, 0x61, 0x73, 0x41, 0x64, 0x64,
    0x00, 0x00, 0x00, 0x00, 0x02, 0x00, 0x00, 0x00, 0x01, 0x00, 0x00, 0x00,
    0x02, 0x00, 0x00, 0x00, 0x8e, 0xe7, 0xff, 0xff, 0x00, 0x00, 0x00, 0x01,
    0x18, 0x00, 0x00, 0x00, 0x20, 0x00, 0x00, 0x00, 0x3c, 0x00, 0x00, 0x00,
    0x1c, 0x00, 0x00, 0x00, 0x00, 0x00, 0x00, 0x09, 0x98, 0x00, 0x00, 0x00,
    0x02, 0x00, 0x00, 0x00, 0xff, 0xff, 0xff, 0xff, 0x18, 0x00, 0x00, 0x00,
    0x74, 0xe7, 0xff, 0xff, 0x08, 0x00, 0x00, 0x00, 0x10, 0x00, 0x00, 0x00,
    0x01, 0x00, 0x00, 0x00, 0x80, 0xff, 0xff, 0xff, 0xff, 0xff, 0xff, 0xff,
    0x01, 0x00, 0x00, 0x00, 0x1c, 0x2c, 0x03, 0x3d, 0x61, 0x00, 0x00, 0x00,
    0x72, 0x74, 0x5f, 0x31, 0x32, 0x5f, 0x32, 0x34, 0x5f, 0x34, 0x30, 0x5f,
    0x64, 0x32, 0x34, 0x5f, 0x31, 0x2f, 0x64, 0x65, 0x6e, 0x73, 0x65, 0x5f,
    0x31, 0x2f, 0x4d, 0x61, 0x74, 0x4d, 0x75, 0x6c, 0x3b, 0x72, 0x74, 0x5f,
    0x31, 0x32, 0x5f, 0x32, 0x34, 0x5f, 0x34, 0x30, 0x5f, 0x64, 0x32, 0x34,
    0x5f, 0x31, 0x2f, 0x64, 0x65, 0x6e, 0x73, 0x65, 0x5f, 0x31, 0x2f, 0x52,
    0x65, 0x6c, 0x75, 0x3b, 0x72, 0x74, 0x5f, 0x31, 0x32, 0x5f, 0x32, 0x34,
    0x5f, 0x34, 0x30, 0x5f, 0x64, 0x32, 0x34, 0x5f, 0x31, 0x2f, 0x64, 0x65,
    0x6e, 0x73, 0x65, 0x5f, 0x31, 0x2f, 0x42, 0x69, 0x61, 0x73, 0x41, 0x64,
    0x64, 0x00, 0x00, 0x00, 0x02, 0x00, 0x00, 0x00, 0x01, 0x00, 0x00, 0x00,
    0x18, 0x00, 0x00, 0x00, 0x4e, 0xe8, 0xff, 0xff, 0x00, 0x00, 0x00, 0x01,
    0x18, 0x00, 0x00, 0x00, 0x20, 0x00, 0x00, 0x00, 0x3c, 0x00, 0x00, 0x00,
    0x1b, 0x00, 0x00, 0x00, 0x00, 0x00, 0x00, 0x09, 0x68, 0x00, 0x00, 0x00,
    0x02, 0x00, 0x00, 0x00, 0xff, 0xff, 0xff, 0xff, 0x28, 0x00, 0x00, 0x00,
    0x34, 0xe8, 0xff, 0xff, 0x08, 0x00, 0x00, 0x00, 0x10, 0x00, 0x00, 0x00,
    0x01, 0x00, 0x00, 0x00, 0x80, 0xff, 0xff, 0xff, 0xff, 0xff, 0xff, 0xff,
    0x01, 0x00, 0x00, 0x00, 0x70, 0x50, 0xaa, 0x3c, 0x31, 0x00, 0x00, 0x00,
    0x72, 0x74, 0x5f, 0x31, 0x32, 0x5f, 0x32, 0x34, 0x5f, 0x34, 0x30, 0x5f,
    0x64, 0x32, 0x34, 0x5f, 0x31, 0x2f, 0x67, 0x6c, 0x6f, 0x62, 0x61, 0x6c,
    0x5f, 0x61, 0x76, 0x65, 0x72, 0x61, 0x67, 0x65, 0x5f, 0x70, 0x6f, 0x6f,
    0x6c, 0x69, 0x6e, 0x67, 0x32, 0x64, 0x5f, 0x31, 0x2f, 0x4d, 0x65, 0x61,
    0x6e, 0x00, 0x00, 0x00, 0x02, 0x00, 0x00, 0x00, 0x01, 0x00, 0x00, 0x00,
    0x28, 0x00, 0x00, 0x00, 0xde, 0xe8, 0xff, 0xff, 0x00, 0x00, 0x00, 0x01,
    0x18, 0x00, 0x00, 0x00, 0x28, 0x00, 0x00, 0x00, 0x48, 0x00, 0x00, 0x00,
    0x1a, 0x00, 0x00, 0x00, 0x00, 0x00, 0x00, 0x09, 0xd8, 0x00, 0x00, 0x00,
    0x04, 0x00, 0x00, 0x00, 0xff, 0xff, 0xff, 0xff, 0x0f, 0x00, 0x00, 0x00,
    0x05, 0x00, 0x00, 0x00, 0x28, 0x00, 0x00, 0x00, 0xcc, 0xe8, 0xff, 0xff,
    0x08, 0x00, 0x00, 0x00, 0x14, 0x00, 0x00, 0x00, 0x01, 0x00, 0x00, 0x00,
    0x80, 0xff, 0xff, 0xff, 0xff, 0xff, 0xff, 0xff, 0x00, 0x00, 0x00, 0x00,
    0x01, 0x00, 0x00, 0x00, 0x47, 0xc1, 0x1f, 0x3d, 0x95, 0x00, 0x00, 0x00,
    0x72, 0x74, 0x5f, 0x31, 0x32, 0x5f, 0x32, 0x34, 0x5f, 0x34, 0x30, 0x5f,
    0x64, 0x32, 0x34, 0x5f, 0x31, 0x2f, 0x63, 0x6f, 0x6e, 0x76, 0x32, 0x64,
    0x5f, 0x32, 0x5f, 0x31, 0x2f, 0x52, 0x65, 0x6c, 0x75, 0x3b, 0x72, 0x74,
    0x5f, 0x31, 0x32, 0x5f, 0x32, 0x34, 0x5f, 0x34, 0x30, 0x5f, 0x64, 0x32,
    0x34, 0x5f, 0x31, 0x2f, 0x63, 0x6f, 0x6e, 0x76, 0x32, 0x64, 0x5f, 0x32,
    0x5f, 0x31, 0x2f, 0x42, 0x69, 0x61, 0x73, 0x41, 0x64, 0x64, 0x3b, 0x72,
    0x74, 0x5f, 0x31, 0x32, 0x5f, 0x32, 0x34, 0x5f, 0x34, 0x30, 0x5f, 0x64,
    0x32, 0x34, 0x5f, 0x31, 0x2f, 0x63, 0x6f, 0x6e, 0x76, 0x32, 0x64, 0x5f,
    0x32, 0x5f, 0x31, 0x2f, 0x63, 0x6f, 0x6e, 0x76, 0x6f, 0x6c, 0x75, 0x74,
    0x69, 0x6f, 0x6e, 0x3b, 0x72, 0x74, 0x5f, 0x31, 0x32, 0x5f, 0x32, 0x34,
    0x5f, 0x34, 0x30, 0x5f, 0x64, 0x32, 0x34, 0x5f, 0x31, 0x2f, 0x63, 0x6f,
    0x6e, 0x76, 0x32, 0x64, 0x5f, 0x32, 0x5f, 0x31, 0x2f, 0x53, 0x71, 0x75,
    0x65, 0x65, 0x7a, 0x65, 0x31, 0x00, 0x00, 0x00, 0x04, 0x00, 0x00, 0x00,
    0x01, 0x00, 0x00, 0x00, 0x0f, 0x00, 0x00, 0x00, 0x05, 0x00, 0x00, 0x00,
    0x28, 0x00, 0x00, 0x00, 0xe6, 0xe9, 0xff, 0xff, 0x00, 0x00, 0x00, 0x01,
    0x18, 0x00, 0x00, 0x00, 0x28, 0x00, 0x00, 0x00, 0x48, 0x00, 0x00, 0x00,
    0x19, 0x00, 0x00, 0x00, 0x00, 0x00, 0x00, 0x09, 0x70, 0x00, 0x00, 0x00,
    0x04, 0x00, 0x00, 0x00, 0xff, 0xff, 0xff, 0xff, 0x0f, 0x00, 0x00, 0x00,
