#pragma once
#include <cstddef>

/* Model labels */
#define snore_MODEL_LABEL_UNLABELLED  0
#define snore_MODEL_LABEL_snore       1
#define snore_MODEL_NUM_CLASSES        2

/* Model input/preprocessing parameters matched to firmware snore_detect.cpp. */
#define snore_MODEL_INPUT_FRAMES       60
#define snore_MODEL_INPUT_FREQ_BINS    20
#define snore_MODEL_INPUT_CHANNELS     1
#define snore_MODEL_SAMPLE_RATE        16000
#define snore_MODEL_FFT_SIZE           512
#define snore_MODEL_FFT_HOP            160
#define snore_MODEL_MEL_BINS           20

#if defined __GNUC__
#define ALIGN(X) __attribute__((aligned(X)))
#elif defined _MSC_VER
#define ALIGN(X) __declspec(align(X))
#else
#define ALIGN(X)
#endif

/*
 * Full-int8 TFLite model trained from D:/STUDY/Snoring Dataset.
 * Source artifact: snore_dataset_light.keras
 * Input: int8 [1,60,20], scale=0.05250138789, zero_point=26.
 * Output: int8 [1,2], scale=0.00390625, zero_point=-128.
 * Class 0 is unlabelled/no-snore; class 1 is snore.
 * Evaluation threshold used by firmware: 0.6.
 * Runtime target: TFLite Micro on Cortex-M55, CMSIS-NN/Helium compatible ops.
 */

ALIGN(16) static const unsigned char snore_model_tflite[] = {
    0x20, 0x00, 0x00, 0x00, 0x54, 0x46, 0x4c, 0x33, 0x00, 0x00, 0x00, 0x00,
    0x14, 0x00, 0x20, 0x00, 0x1c, 0x00, 0x18, 0x00, 0x14, 0x00, 0x10, 0x00,
    0x0c, 0x00, 0x00, 0x00, 0x08, 0x00, 0x04, 0x00, 0x14, 0x00, 0x00, 0x00,
    0x1c, 0x00, 0x00, 0x00, 0x8c, 0x00, 0x00, 0x00, 0xe4, 0x00, 0x00, 0x00,
    0xec, 0x17, 0x00, 0x00, 0xfc, 0x17, 0x00, 0x00, 0xd0, 0x33, 0x00, 0x00,
    0x03, 0x00, 0x00, 0x00, 0x01, 0x00, 0x00, 0x00, 0x04, 0x00, 0x00, 0x00,
    0x7a, 0xe5, 0xff, 0xff, 0x0c, 0x00, 0x00, 0x00, 0x1c, 0x00, 0x00, 0x00,
    0x3c, 0x00, 0x00, 0x00, 0x0f, 0x00, 0x00, 0x00, 0x73, 0x65, 0x72, 0x76,
    0x69, 0x6e, 0x67, 0x5f, 0x64, 0x65, 0x66, 0x61, 0x75, 0x6c, 0x74, 0x00,
    0x01, 0x00, 0x00, 0x00, 0x04, 0x00, 0x00, 0x00, 0x90, 0xff, 0xff, 0xff,
    0x1d, 0x00, 0x00, 0x00, 0x04, 0x00, 0x00, 0x00, 0x08, 0x00, 0x00, 0x00,
    0x6f, 0x75, 0x74, 0x70, 0x75, 0x74, 0x5f, 0x30, 0x00, 0x00, 0x00, 0x00,
    0x01, 0x00, 0x00, 0x00, 0x04, 0x00, 0x00, 0x00, 0x82, 0xe5, 0xff, 0xff,
    0x04, 0x00, 0x00, 0x00, 0x0d, 0x00, 0x00, 0x00, 0x6c, 0x61, 0x79, 0x65,
    0x72, 0x5f, 0x30, 0x5f, 0x69, 0x6e, 0x70, 0x75, 0x74, 0x00, 0x00, 0x00,
    0x02, 0x00, 0x00, 0x00, 0x34, 0x00, 0x00, 0x00, 0x04, 0x00, 0x00, 0x00,
    0xdc, 0xff, 0xff, 0xff, 0x20, 0x00, 0x00, 0x00, 0x04, 0x00, 0x00, 0x00,
    0x13, 0x00, 0x00, 0x00, 0x43, 0x4f, 0x4e, 0x56, 0x45, 0x52, 0x53, 0x49,
    0x4f, 0x4e, 0x5f, 0x4d, 0x45, 0x54, 0x41, 0x44, 0x41, 0x54, 0x41, 0x00,
    0x08, 0x00, 0x0c, 0x00, 0x08, 0x00, 0x04, 0x00, 0x08, 0x00, 0x00, 0x00,
    0x1f, 0x00, 0x00, 0x00, 0x04, 0x00, 0x00, 0x00, 0x13, 0x00, 0x00, 0x00,
    0x6d, 0x69, 0x6e, 0x5f, 0x72, 0x75, 0x6e, 0x74, 0x69, 0x6d, 0x65, 0x5f,
    0x76, 0x65, 0x72, 0x73, 0x69, 0x6f, 0x6e, 0x00, 0x21, 0x00, 0x00, 0x00,
    0x04, 0x17, 0x00, 0x00, 0xfc, 0x16, 0x00, 0x00, 0xe8, 0x16, 0x00, 0x00,
    0xd4, 0x16, 0x00, 0x00, 0xc0, 0x16, 0x00, 0x00, 0xac, 0x16, 0x00, 0x00,
    0xa4, 0x16, 0x00, 0x00, 0x8c, 0x16, 0x00, 0x00, 0x74, 0x16, 0x00, 0x00,
    0x44, 0x16, 0x00, 0x00, 0xf4, 0x15, 0x00, 0x00, 0x64, 0x14, 0x00, 0x00,
    0xf4, 0x13, 0x00, 0x00, 0x64, 0x06, 0x00, 0x00, 0x14, 0x06, 0x00, 0x00,
    0x84, 0x01, 0x00, 0x00, 0x54, 0x01, 0x00, 0x00, 0xfc, 0x00, 0x00, 0x00,
    0xf4, 0x00, 0x00, 0x00, 0xec, 0x00, 0x00, 0x00, 0xe4, 0x00, 0x00, 0x00,
    0xdc, 0x00, 0x00, 0x00, 0xd4, 0x00, 0x00, 0x00, 0xcc, 0x00, 0x00, 0x00,
    0xc4, 0x00, 0x00, 0x00, 0xbc, 0x00, 0x00, 0x00, 0xb4, 0x00, 0x00, 0x00,
    0xac, 0x00, 0x00, 0x00, 0xa4, 0x00, 0x00, 0x00, 0x9c, 0x00, 0x00, 0x00,
    0x94, 0x00, 0x00, 0x00, 0x74, 0x00, 0x00, 0x00, 0x04, 0x00, 0x00, 0x00,
    0x82, 0xe6, 0xff, 0xff, 0x04, 0x00, 0x00, 0x00, 0x60, 0x00, 0x00, 0x00,
    0x0c, 0x00, 0x00, 0x00, 0x08, 0x00, 0x0e, 0x00, 0x08, 0x00, 0x04, 0x00,
    0x08, 0x00, 0x00, 0x00, 0x10, 0x00, 0x00, 0x00, 0x28, 0x00, 0x00, 0x00,
    0x00, 0x00, 0x06, 0x00, 0x08, 0x00, 0x04, 0x00, 0x06, 0x00, 0x00, 0x00,
    0x04, 0x00, 0x00, 0x00, 0x01, 0x00, 0x00, 0x00, 0xeb, 0x03, 0x00, 0x00,
    0x0c, 0x00, 0x18, 0x00, 0x14, 0x00, 0x10, 0x00, 0x0c, 0x00, 0x04, 0x00,
    0x0c, 0x00, 0x00, 0x00, 0xc2, 0xa1, 0xe2, 0x1a, 0x47, 0x7b, 0x83, 0x7d,
    0x02, 0x00, 0x00, 0x00, 0x02, 0x00, 0x00, 0x00, 0x04, 0x00, 0x00, 0x00,
    0x06, 0x00, 0x00, 0x00, 0x32, 0x2e, 0x32, 0x31, 0x2e, 0x30, 0x00, 0x00,
    0xee, 0xe6, 0xff, 0xff, 0x04, 0x00, 0x00, 0x00, 0x10, 0x00, 0x00, 0x00,
    0x31, 0x2e, 0x31, 0x34, 0x2e, 0x30, 0x00, 0x00, 0x00, 0x00, 0x00, 0x00,
    0x00, 0x00, 0x00, 0x00, 0x0c, 0xcf, 0xff, 0xff, 0x10, 0xcf, 0xff, 0xff,
    0x14, 0xcf, 0xff, 0xff, 0x18, 0xcf, 0xff, 0xff, 0x1c, 0xcf, 0xff, 0xff,
    0x20, 0xcf, 0xff, 0xff, 0x24, 0xcf, 0xff, 0xff, 0x28, 0xcf, 0xff, 0xff,
    0x2c, 0xcf, 0xff, 0xff, 0x30, 0xcf, 0xff, 0xff, 0x34, 0xcf, 0xff, 0xff,
    0x38, 0xcf, 0xff, 0xff, 0x3c, 0xcf, 0xff, 0xff, 0x3e, 0xe7, 0xff, 0xff,
    0x04, 0x00, 0x00, 0x00, 0x48, 0x00, 0x00, 0x00, 0x99, 0x3a, 0xbd, 0x81,
    0xfa, 0x0f, 0xd0, 0xec, 0xfc, 0x7f, 0x67, 0x2b, 0x60, 0x48, 0x85, 0x0e,
    0xf5, 0x3f, 0xc7, 0xce, 0x0e, 0x67, 0xe7, 0x81, 0x8c, 0x30, 0x60, 0xb5,
    0x21, 0x53, 0x81, 0xec, 0x6f, 0x15, 0xe7, 0x23, 0x56, 0xea, 0x11, 0x03,
    0x5b, 0x28, 0xcd, 0x7f, 0xc3, 0x05, 0x38, 0x5c, 0x3b, 0x56, 0x61, 0x42,
    0x13, 0x7f, 0xc2, 0x00, 0x39, 0x81, 0x59, 0x7d, 0xcb, 0xdc, 0x4a, 0xec,
    0x42, 0x28, 0x7f, 0x40, 0x09, 0x49, 0x39, 0x26, 0x92, 0xe7, 0xff, 0xff,
    0x04, 0x00, 0x00, 0x00, 0x20, 0x00, 0x00, 0x00, 0x15, 0xfe, 0xff, 0xff,
    0x0f, 0x07, 0x00, 0x00, 0xee, 0x0e, 0x00, 0x00, 0xd2, 0xfc, 0xff, 0xff,
    0x44, 0xfc, 0xff, 0xff, 0x55, 0xfb, 0xff, 0xff, 0xdd, 0xff, 0xff, 0xff,
    0x04, 0xf7, 0xff, 0xff, 0xbe, 0xe7, 0xff, 0xff, 0x04, 0x00, 0x00, 0x00,
    0x80, 0x04, 0x00, 0x00, 0xfb, 0x02, 0xc1, 0xe7, 0xe4, 0xcb, 0x81, 0x24,
    0xf5, 0xb5, 0xcf, 0x28, 0x00, 0x1a, 0x29, 0xfd, 0xcc, 0x0a, 0xcd, 0x62,
    0x22, 0x4f, 0x56, 0x33, 0xe6, 0xfb, 0x86, 0xc0, 0x1c, 0x13, 0xac, 0x18,
    0x1d, 0xb8, 0xe3, 0x5c, 0x06, 0x01, 0x34, 0xf5, 0xf2, 0xf5, 0x82, 0x73,
    0xf1, 0x0f, 0x63, 0x03, 0x20, 0xdd, 0xa2, 0x99, 0x1b, 0xf9, 0xae, 0x1c,
    0x38, 0xa7, 0xab, 0x45, 0xbc, 0x28, 0x56, 0xeb, 0x12, 0x3a, 0xa5, 0x3e,
    0x09, 0x54, 0x6e, 0x08, 0xf7, 0xc6, 0x1a, 0x20, 0xd1, 0x05, 0x19, 0xb2,
    0x55, 0x97, 0xd1, 0x30, 0x03, 0xf0, 0x02, 0xca, 0xdc, 0x55, 0xf7, 0x51,
    0x52, 0x27, 0x7f, 0x52, 0xf0, 0xcf, 0xda, 0x70, 0xfd, 0x09, 0xfd, 0xc5,
    0xd1, 0xb8, 0x2f, 0x06, 0xff, 0x32, 0x63, 0xda, 0x2d, 0x13, 0xf9, 0x3a,
    0x45, 0x78, 0x1f, 0x51, 0xf1, 0xbb, 0xc4, 0x02, 0x0a, 0xbe, 0x24, 0x11,
    0xdd, 0xb9, 0x33, 0x3c, 0xf3, 0xe4, 0x31, 0xec, 0xe9, 0x17, 0x19, 0x72,
    0x61, 0x0e, 0x22, 0x33, 0x23, 0x26, 0x1a, 0x8e, 0x13, 0xec, 0x81, 0x08,
    0x1d, 0xed, 0xfe, 0x3d, 0xd9, 0xd7, 0x17, 0x1a, 0x1c, 0xfc, 0xf0, 0x06,
    0x0c, 0x24, 0xdd, 0x1d, 0x0d, 0x01, 0xf9, 0xc1, 0xdc, 0x1e, 0x9c, 0x16,
    0x0a, 0xd6, 0x2d, 0x18, 0xf1, 0x18, 0x28, 0xea, 0xfe, 0x1e, 0x23, 0xf1,
    0x14, 0xfb, 0xf2, 0xe1, 0xce, 0x07, 0xc9, 0x87, 0x3a, 0x10, 0x93, 0xec,
    0xf9, 0xd2, 0xe5, 0x02, 0xc6, 0x05, 0x42, 0x05, 0xb3, 0x12, 0x12, 0xff,
    0xeb, 0x2f, 0xd7, 0xe4, 0xef, 0x8f, 0x42, 0x56, 0xf3, 0xc3, 0x5e, 0xc8,
    0x0d, 0xe0, 0x2b, 0x1e, 0xda, 0xb9, 0x1e, 0xde, 0xd9, 0xe7, 0x40, 0x63,
    0x30, 0x0d, 0x2d, 0x06, 0x39, 0x94, 0x12, 0x21, 0xbf, 0xd2, 0x09, 0xc3,
    0xc9, 0x06, 0x3f, 0x4d, 0x10, 0xf4, 0x50, 0xca, 0xdc, 0xe0, 0x09, 0x32,
    0x10, 0x18, 0x19, 0xe0, 0x48, 0xdb, 0x11, 0x51, 0xcc, 0x08, 0x14, 0x81,
    0x31, 0xee, 0xf7, 0x58, 0xf3, 0xc8, 0x49, 0xb6, 0x36, 0xc1, 0xd1, 0x59,
    0x00, 0xf7, 0x3d, 0x10, 0x81, 0x34, 0xac, 0x18, 0xf1, 0xd2, 0x1c, 0x3b,
    0xa2, 0x2b, 0x14, 0xb2, 0xd2, 0xef, 0xb8, 0x1e, 0xab, 0xb7, 0xfb, 0x4c,
    0xf5, 0x2a, 0xf6, 0xd1, 0xf7, 0xff, 0xcf, 0xf1, 0xe8, 0x3e, 0x1a, 0x42,
    0xf9, 0xf5, 0x32, 0xa2, 0x05, 0xcc, 0x96, 0xf9, 0xe5, 0x21, 0x44, 0x10,
    0xcf, 0xfa, 0x55, 0xdc, 0x06, 0xec, 0xaf, 0x09, 0x2a, 0x35, 0xee, 0x43,
    0x06, 0x21, 0xf0, 0xd6, 0xd2, 0xef, 0xc6, 0xd3, 0xc1, 0xd3, 0x23, 0xf5,
    0x1e, 0xde, 0xf0, 0xf8, 0xce, 0x15, 0xec, 0xeb, 0x45, 0x4e, 0x16, 0xf9,
    0x11, 0x53, 0xca, 0xbd, 0x23, 0x50, 0xf4, 0x21, 0xf2, 0x31, 0xcf, 0xbf,
    0x23, 0x4c, 0x9d, 0x03, 0xcf, 0xdb, 0x3e, 0xc8, 0x2b, 0xe0, 0xf0, 0xc9,
    0xdf, 0x18, 0x23, 0xd8, 0x0c, 0xf7, 0xa0, 0xe2, 0x39, 0x0f, 0xd6, 0x93,
    0xdf, 0x1e, 0xe9, 0xc6, 0xec, 0xff, 0x24, 0xac, 0xd5, 0xf1, 0xbf, 0x1e,
    0x38, 0xdf, 0x44, 0x81, 0xcd, 0xbd, 0xf0, 0xb1, 0x4b, 0xf5, 0x09, 0xca,
    0xda, 0xcd, 0x05, 0xf3, 0xe0, 0x0f, 0xe6, 0xb0, 0xef, 0x3d, 0x9a, 0xe9,
    0xf2, 0x1f, 0x4a, 0xaf, 0xf2, 0xdf, 0xc0, 0xca, 0xfe, 0x43, 0xd6, 0xcb,
    0xeb, 0xf7, 0x1e, 0x20, 0x36, 0x5a, 0x20, 0xac, 0x48, 0xee, 0xdf, 0xf4,
    0x14, 0xb3, 0x19, 0x85, 0xf6, 0xd3, 0xc2, 0xf8, 0x4e, 0xf7, 0x5a, 0x1b,
    0xe3, 0xe6, 0xb0, 0xd1, 0xd6, 0x56, 0x2a, 0xbc, 0x51, 0xcf, 0x81, 0xf4,
    0xf2, 0xa6, 0xe6, 0x91, 0x00, 0xdb, 0xe3, 0x1a, 0xf5, 0xa0, 0x51, 0x00,
    0xb4, 0x3c, 0xb5, 0xad, 0xde, 0xc1, 0xb8, 0xec, 0xc3, 0x8d, 0xfa, 0xc0,
    0x32, 0xba, 0xd8, 0xe0, 0x04, 0x03, 0x17, 0xd5, 0x3a, 0xcd, 0x0b, 0x62,
    0xd0, 0x1b, 0x6b, 0xe2, 0xe3, 0xaa, 0xbc, 0xc6, 0x9f, 0xca, 0xd8, 0x06,
    0x28, 0xeb, 0xd6, 0xfd, 0xde, 0xd2, 0x11, 0x89, 0xdc, 0xec, 0xd7, 0x4f,
    0xf9, 0x28, 0xfb, 0x1f, 0xcd, 0x12, 0x0c, 0xe8, 0xd8, 0xb2, 0x81, 0xd3,
    0x0c, 0xf6, 0x3f, 0x29, 0xcb, 0xe8, 0xf9, 0xdd, 0x07, 0x20, 0x29, 0x67,
    0xe7, 0x62, 0x49, 0xd5, 0x35, 0x14, 0x22, 0x2a, 0x0e, 0xec, 0xe5, 0x1c,
    0x0b, 0x0e, 0xf0, 0x07, 0x05, 0xdd, 0x2f, 0x22, 0x07, 0xfb, 0xcb, 0xf1,
    0x3b, 0xd2, 0x15, 0x3c, 0x70, 0xeb, 0xc2, 0x0c, 0xe2, 0x05, 0xf3, 0x24,
    0xfa, 0xeb, 0xda, 0xd3, 0x1a, 0xfd, 0xf6, 0x18, 0x02, 0x13, 0xe4, 0xc1,
    0x0f, 0xe7, 0xde, 0x1c, 0x7f, 0x24, 0x31, 0x30, 0xea, 0x0b, 0xd2, 0x18,
    0x1a, 0xcc, 0xe4, 0xd2, 0x06, 0x17, 0xc4, 0x27, 0x50, 0xf5, 0xcf, 0xb2,
    0x2e, 0x13, 0xb5, 0x44, 0xd4, 0x41, 0xff, 0x0f, 0x14, 0x15, 0x24, 0xe3,
    0x0c, 0x31, 0xf0, 0x8e, 0xc7, 0x10, 0x81, 0xda, 0xbb, 0x1a, 0x18, 0x3f,
    0xca, 0xf0, 0xdd, 0x17, 0xe9, 0xf3, 0x22, 0x27, 0x29, 0x2a, 0xda, 0x31,
    0xdc, 0xf8, 0x08, 0x90, 0x0c, 0xe6, 0xaf, 0x25, 0x02, 0xbb, 0x59, 0x03,
    0xc9, 0xe0, 0x43, 0xd3, 0x08, 0x35, 0xd8, 0x0c, 0x49, 0x0a, 0x25, 0xeb,
    0x19, 0x2c, 0x51, 0xa7, 0x11, 0x14, 0xd3, 0xed, 0x20, 0xe0, 0x1f, 0x27,
    0xee, 0xbf, 0xfa, 0xc3, 0xf8, 0x3b, 0x01, 0xda, 0x21, 0x44, 0x28, 0x1c,
    0xe1, 0xe2, 0x39, 0xa8, 0xd4, 0x3c, 0xd9, 0x15, 0x01, 0xee, 0x31, 0xd3,
    0xec, 0xd9, 0xae, 0xe5, 0xcc, 0x4e, 0x63, 0xbe, 0x45, 0xd0, 0xe7, 0xff,
    0xd0, 0x10, 0x5b, 0xcd, 0xd5, 0xec, 0xff, 0xeb, 0xd4, 0x2e, 0x36, 0x9e,
    0xf9, 0xef, 0xa4, 0xf8, 0xf9, 0x49, 0x4d, 0xde, 0x14, 0x36, 0x1e, 0xcf,
    0x08, 0x35, 0x22, 0xc3, 0xd4, 0xc8, 0xe3, 0xd5, 0xdd, 0xf0, 0x1a, 0x81,
    0xf9, 0xfe, 0x05, 0xd6, 0xbf, 0x46, 0x20, 0xfd, 0x43, 0xf3, 0xb5, 0xd5,
    0xb2, 0xd3, 0x23, 0x5d, 0xf1, 0xb7, 0x4c, 0x14, 0xc3, 0x1c, 0xcb, 0x4b,
    0xbd, 0x47, 0xde, 0xe5, 0x89, 0x01, 0xf5, 0xa0, 0x19, 0xed, 0xd1, 0x2c,
    0xb9, 0xdc, 0x2a, 0x06, 0xab, 0xdb, 0x09, 0xa7, 0xda, 0x0e, 0xf5, 0xd0,
    0x05, 0x12, 0x14, 0x33, 0x81, 0x44, 0xe5, 0xa8, 0xf9, 0xf2, 0xea, 0xf8,
    0xd7, 0x26, 0xf9, 0x04, 0x1b, 0xe0, 0x4b, 0xa5, 0xfb, 0xfe, 0x38, 0xf6,
    0x08, 0xf5, 0x39, 0x29, 0xd8, 0x5e, 0xe2, 0x30, 0x32, 0x1f, 0xea, 0x60,
    0x05, 0x3e, 0x28, 0xe7, 0xf2, 0xa6, 0x13, 0x1b, 0x13, 0x15, 0x05, 0xb4,
    0x2f, 0xf9, 0xc2, 0x0f, 0xf1, 0x38, 0xe4, 0xba, 0x60, 0x52, 0xd7, 0x38,
    0xd6, 0x04, 0x0a, 0xba, 0x13, 0x09, 0xe9, 0xf6, 0xf8, 0xe2, 0x18, 0x0e,
    0x50, 0xa6, 0xfd, 0x0a, 0x10, 0x4c, 0xef, 0xd3, 0x50, 0x2a, 0xf0, 0x7f,
    0x13, 0xf7, 0xb4, 0xb4, 0xd7, 0xf9, 0xc2, 0x0e, 0xe4, 0x46, 0x1e, 0xfc,
    0x25, 0xc4, 0xb5, 0xcc, 0x29, 0x19, 0x31, 0xc8, 0x42, 0xda, 0x2d, 0x1c,
    0x14, 0x17, 0xf2, 0x18, 0xfd, 0xc1, 0xed, 0x23, 0xcc, 0xe0, 0xcc, 0xc1,
    0xcf, 0xbe, 0x04, 0xe5, 0x57, 0x51, 0x51, 0x13, 0x62, 0x31, 0x00, 0x20,
    0x20, 0x36, 0x3d, 0xb3, 0x04, 0xfb, 0x13, 0xe2, 0x2b, 0xf8, 0xd1, 0xce,
    0x27, 0xb1, 0x02, 0xf6, 0x55, 0xd7, 0xf3, 0x2c, 0x38, 0x35, 0x2d, 0x4f,
    0x33, 0x38, 0x00, 0xb1, 0x1a, 0x34, 0xe7, 0xf5, 0x0c, 0x23, 0x35, 0xe9,
    0xb3, 0x1e, 0x81, 0xb1, 0x02, 0xe0, 0xe1, 0x37, 0xfe, 0xe0, 0x22, 0x30,
    0x10, 0x31, 0xcc, 0xf3, 0x35, 0x31, 0xfe, 0x32, 0xfc, 0x2e, 0xe9, 0xe0,
    0x11, 0xfb, 0xd1, 0x26, 0xe6, 0x2e, 0xf5, 0xfd, 0xe6, 0xda, 0x33, 0xf8,
    0xf9, 0xec, 0xcb, 0x15, 0x42, 0xe9, 0x0d, 0x30, 0xfe, 0x00, 0xd6, 0xb8,
    0xe4, 0x16, 0xc2, 0x26, 0x2d, 0xe5, 0x1b, 0xf3, 0x13, 0xea, 0xeb, 0x0d,
    0x02, 0x35, 0x05, 0x2c, 0x25, 0xf8, 0xf0, 0xdf, 0x11, 0xed, 0xda, 0x81,
    0xff, 0xeb, 0x9f, 0x27, 0x05, 0x9f, 0x8b, 0xf2, 0xff, 0xc3, 0x12, 0xe0,
    0x05, 0xd3, 0xa3, 0xed, 0xc5, 0x00, 0xe5, 0xea, 0xf3, 0xe6, 0xe4, 0x5c,
    0x2b, 0x4a, 0x1c, 0x25, 0xed, 0x81, 0xf6, 0x45, 0xf7, 0x31, 0x21, 0xa7,
    0x3a, 0xef, 0xde, 0x2e, 0xc9, 0x00, 0xca, 0xc6, 0xec, 0x3e, 0xe0, 0x29,
    0x47, 0x46, 0x3a, 0xf4, 0x15, 0x83, 0xb6, 0x77, 0xe4, 0x1a, 0x1f, 0xa7,
    0x25, 0xd4, 0xc7, 0xd7, 0x14, 0xff, 0xc0, 0xc7, 0xeb, 0x2a, 0xce, 0x47,
    0x1c, 0x54, 0x1b, 0x03, 0x4a, 0xec, 0xff, 0xff, 0x04, 0x00, 0x00, 0x00,
    0x40, 0x00, 0x00, 0x00, 0x16, 0xf6, 0xff, 0xff, 0x95, 0xf9, 0xff, 0xff,
    0x55, 0xff, 0xff, 0xff, 0x8d, 0xff, 0xff, 0xff, 0x16, 0x02, 0x00, 0x00,
    0xcc, 0x05, 0x00, 0x00, 0x31, 0x09, 0x00, 0x00, 0x61, 0x01, 0x00, 0x00,
    0x3a, 0xfc, 0xff, 0xff, 0xbf, 0x03, 0x00, 0x00, 0xa1, 0x0a, 0x00, 0x00,
    0x68, 0x01, 0x00, 0x00, 0x78, 0xfd, 0xff, 0xff, 0x20, 0x02, 0x00, 0x00,
    0xe7, 0xfb, 0xff, 0xff, 0xdd, 0xfc, 0xff, 0xff, 0x96, 0xec, 0xff, 0xff,
    0x04, 0x00, 0x00, 0x00, 0x80, 0x0d, 0x00, 0x00, 0xf6, 0xe1, 0x05, 0x05,
    0x96, 0x16, 0xf2, 0xfc, 0x01, 0x9c, 0xb7, 0xbf, 0xe6, 0xe1, 0x05, 0x1d,
    0x0a, 0x0d, 0xef, 0xda, 0xb8, 0xf5, 0xde, 0x06, 0x11, 0xd1, 0xbd, 0x00,
    0x06, 0xef, 0x0b, 0x25, 0x08, 0x2c, 0x13, 0x1d, 0xe7, 0x00, 0xe5, 0xff,
    0x28, 0xe2, 0xbe, 0xd7, 0x25, 0x1a, 0x19, 0x7b, 0x2d, 0xfa, 0x01, 0xdf,
    0x81, 0x09, 0x0f, 0x07, 0x0e, 0xad, 0xc8, 0xaf, 0x00, 0x16, 0xee, 0x25,
    0x03, 0xe7, 0x18, 0x25, 0xb0, 0x18, 0xd7, 0x06, 0x13, 0xd4, 0xdc, 0xce,
    0xef, 0xdf, 0x05, 0x3c, 0x31, 0xfa, 0xe4, 0x04, 0x15, 0x20, 0x04, 0xee,
    0x23, 0x0e, 0xc6, 0xf0, 0x03, 0x0f, 0x1d, 0x6d, 0x25, 0x08, 0xd0, 0xc9,
    0xbd, 0x0f, 0xf3, 0xbd, 0xeb, 0xb5, 0xb6, 0xe3, 0xfd, 0xf8, 0x14, 0x23,
    0x0d, 0x1d, 0x1c, 0x19, 0xe0, 0x25, 0xbf, 0x0f, 0xfc, 0xf4, 0xb2, 0x06,
    0x15, 0xd6, 0x10, 0x44, 0x0b, 0x3c, 0xd2, 0xea, 0xfa, 0x1a, 0xc7, 0xca,
    0x10, 0xe6, 0xba, 0x00, 0x2a, 0xe4, 0x04, 0x5d, 0xe4, 0x06, 0xb1, 0xe5,
    0x95, 0x3b, 0x39, 0x25, 0xda, 0xcf, 0x05, 0xdd, 0xcd, 0xc8, 0x09, 0x1b,
    0xec, 0x10, 0xc0, 0xe8, 0x24, 0x13, 0x25, 0xd1, 0xf0, 0xfb, 0x42, 0xbf,
    0x24, 0x22, 0x17, 0xdc, 0xc1, 0xe9, 0x9e, 0x0d, 0x37, 0x27, 0x25, 0x10,
    0xed, 0x44, 0x22, 0xf0, 0x0c, 0xf2, 0xf9, 0x81, 0xd9, 0x03, 0xbe, 0xd1,
    0xbc, 0x2d, 0x4e, 0x08, 0xe8, 0xb9, 0xfa, 0xf2, 0xf4, 0xba, 0xe9, 0x07,
    0xeb, 0x06, 0xab, 0xf4, 0x12, 0x20, 0x1a, 0xdb, 0xee, 0x1e, 0x24, 0xbc,
    0x0d, 0x0f, 0x23, 0xad, 0xc4, 0xe3, 0xb0, 0x11, 0x37, 0x3a, 0x3d, 0xf2,
    0x07, 0x19, 0x36, 0xc3, 0xea, 0xf7, 0xe4, 0x93, 0xe3, 0xf2, 0xbd, 0xc3,
    0x90, 0x2a, 0x2f, 0x09, 0xd7, 0xd4, 0x02, 0x04, 0xc7, 0xbd, 0xe2, 0x0b,
    0xd2, 0x00, 0xc4, 0xc3, 0x15, 0xf5, 0x21, 0xca, 0xe0, 0x2c, 0x3c, 0xe7,
    0x0f, 0x19, 0x19, 0xb4, 0x97, 0xcc, 0xd7, 0x23, 0x41, 0x1a, 0x31, 0x14,
    0x11, 0x4d, 0x1c, 0xec, 0xe3, 0xfc, 0xd2, 0xcf, 0xff, 0xf7, 0x39, 0xbb,
    0xf3, 0xd8, 0xb4, 0x50, 0xeb, 0x1e, 0xd7, 0x41, 0x42, 0xe3, 0xee, 0xc4,
    0x48, 0x15, 0xe7, 0xe9, 0x40, 0x8b, 0x81, 0x0a, 0x39, 0x45, 0x00, 0x5f,
    0x3b, 0xc8, 0x1b, 0x01, 0x08, 0xef, 0x15, 0x38, 0x39, 0xce, 0x0c, 0xfd,
    0xe2, 0xec, 0xd6, 0x58, 0xcb, 0x02, 0x40, 0xdd, 0x3c, 0x1d, 0x5d, 0x15,
    0x1b, 0x89, 0xb7, 0x20, 0xd9, 0xd0, 0xd3, 0x59, 0x39, 0xea, 0x19, 0xf7,
    0x0d, 0x0e, 0x52, 0xec, 0xea, 0xc1, 0x9a, 0xce, 0x21, 0x36, 0xa5, 0x5d,
    0xe6, 0x3c, 0xf7, 0xd6, 0x55, 0x22, 0xfc, 0x3e, 0x30, 0xdf, 0xc8, 0xec,
    0xe0, 0x35, 0xbe, 0x7e, 0xd3, 0xe2, 0x04, 0x0c, 0x05, 0x30, 0xe3, 0x2f,
    0x1b, 0x23, 0x97, 0x03, 0xe6, 0x24, 0xd8, 0x44, 0x13, 0x31, 0xdd, 0xe4,
    0x00, 0xd1, 0x0d, 0x09, 0xfe, 0xce, 0xb4, 0x1f, 0xd1, 0xe8, 0xaa, 0x33,
    0x15, 0x33, 0x42, 0xe4, 0x45, 0xea, 0x61, 0x4e, 0x2d, 0xce, 0x1a, 0x2c,
    0x28, 0xd6, 0x1a, 0x26, 0xd5, 0x26, 0x32, 0x30, 0xdf, 0x2e, 0x2d, 0xbe,
    0x12, 0x83, 0xc5, 0xd2, 0xdb, 0x1d, 0x10, 0x2c, 0xf2, 0x2a, 0x32, 0xe7,
    0x2a, 0x00, 0x10, 0x1d, 0x14, 0x81, 0xfd, 0xd7, 0xde, 0x2e, 0xe0, 0x4a,
    0x17, 0xd6, 0x1f, 0xcb, 0x30, 0x2c, 0x3d, 0x0c, 0x27, 0xc7, 0xad, 0xce,
    0x25, 0xe8, 0xe7, 0x24, 0xf2, 0x14, 0x03, 0xf7, 0x11, 0x1a, 0x1b, 0xb3,
    0x4d, 0xe5, 0xcc, 0xdb, 0xd0, 0xea, 0xf3, 0x3e, 0x05, 0x09, 0x09, 0xf7,
    0x32, 0xe4, 0x36, 0xe0, 0x28, 0xbf, 0xa2, 0xfc, 0x12, 0x2e, 0xd6, 0x3a,
    0x2c, 0x07, 0xf2, 0xd1, 0x2d, 0xf4, 0x60, 0x0b, 0x25, 0x98, 0xa2, 0xb2,
    0xf8, 0x25, 0xf6, 0x4d, 0x13, 0xf9, 0xe1, 0xeb, 0xf0, 0xef, 0x35, 0xfd,
    0xef, 0xc9, 0xaa, 0x20, 0x0f, 0x04, 0xf0, 0x52, 0x21, 0x16, 0x07, 0xb7,
    0x26, 0xed, 0x37, 0x07, 0x0b, 0xfe, 0xf8, 0x1f, 0x24, 0xf9, 0xf8, 0x47,
    0x24, 0x0b, 0xe4, 0xf0, 0xef, 0x43, 0x31, 0x22, 0xe3, 0xe9, 0xf5, 0xec,
    0xd6, 0x02, 0x12, 0x39, 0xe3, 0xf6, 0xfe, 0x06, 0x17, 0xc4, 0xe3, 0xcb,
    0xf5, 0x19, 0x53, 0xe7, 0x21, 0x10, 0x30, 0xa6, 0xe7, 0xf9, 0x0d, 0x18,
    0xe5, 0xdf, 0xa6, 0xf7, 0xf9, 0x17, 0x44, 0xdd, 0xeb, 0x0c, 0x32, 0xbb,
    0x2a, 0x17, 0xf8, 0xf3, 0xd1, 0xd7, 0xd8, 0xf8, 0xe3, 0x1d, 0xff, 0xf2,
    0x0c, 0xf1, 0x3c, 0xc6, 0xf5, 0x21, 0x20, 0x81, 0x21, 0xc5, 0xb9, 0x06,
    0x04, 0x01, 0x0a, 0x33, 0xe1, 0xff, 0x50, 0xaf, 0x2d, 0x26, 0xea, 0xf1,
    0xd5, 0xed, 0xd3, 0xe3, 0x1f, 0x36, 0x2a, 0x10, 0xf5, 0x08, 0x17, 0xe2,
    0x02, 0x16, 0x02, 0xaa, 0x07, 0xdf, 0xd1, 0x1b, 0xf1, 0x00, 0x37, 0xf8,
    0x1b, 0xe6, 0x33, 0xed, 0x05, 0xf5, 0x09, 0x83, 0xe4, 0x06, 0xd3, 0xf5,
    0xbc, 0x22, 0x40, 0xfa, 0x0b, 0xcd, 0x37, 0xb1, 0xf8, 0x03, 0x15, 0x06,
    0x1f, 0xda, 0xb3, 0xf4, 0x1c, 0x2c, 0x09, 0x03, 0xfd, 0xe3, 0x4a, 0x9c,
    0x19, 0x01, 0xf3, 0xf8, 0x00, 0x28, 0xba, 0x06, 0xe9, 0x37, 0xf0, 0x0a,
    0xe1, 0x0a, 0x28, 0xee, 0x1c, 0xed, 0x25, 0xa0, 0x04, 0x04, 0x04, 0x14,
    0x8b, 0x13, 0x0c, 0x30, 0xec, 0xbb, 0x09, 0xea, 0x14, 0xf7, 0x05, 0x25,
    0x0f, 0x08, 0xce, 0x08, 0xb2, 0x0c, 0x1d, 0x07, 0x17, 0xcb, 0x01, 0xda,
    0x15, 0xf7, 0x0c, 0x0c, 0xea, 0xdd, 0xbf, 0xee, 0xf1, 0x0a, 0x26, 0xdb,
    0x28, 0xe7, 0xed, 0xbc, 0x02, 0x05, 0x27, 0xb9, 0x10, 0xe4, 0xe3, 0xf8,
    0x81, 0x14, 0xfb, 0x4f, 0x27, 0xb8, 0xdc, 0xe5, 0xeb, 0xe8, 0x19, 0x53,
    0x1f, 0xeb, 0xfa, 0xe9, 0xd5, 0x09, 0xf9, 0xf5, 0x03, 0xf2, 0xd1, 0xd1,
    0x0d, 0x07, 0x0d, 0x0d, 0xee, 0x00, 0xed, 0xd3, 0xfc, 0x04, 0x1b, 0xd2,
    0x09, 0x0d, 0xf8, 0xf3, 0x18, 0x1e, 0x03, 0xae, 0x13, 0x07, 0x0e, 0x17,
    0xc9, 0xea, 0xf8, 0x31, 0x14, 0xc9, 0xd7, 0xbe, 0xf0, 0xf1, 0x21, 0x4e,
    0xf1, 0x09, 0xce, 0xe9, 0xf1, 0x15, 0xea, 0x0c, 0xe6, 0xd6, 0xe6, 0xd7,
    0xff, 0x18, 0xf1, 0x23, 0x0c, 0x17, 0xd7, 0xfe, 0x28, 0x34, 0xe7, 0xc8,
    0x21, 0xe9, 0xef, 0xbf, 0x29, 0x20, 0x27, 0xaf, 0xfb, 0xf8, 0xcf, 0xd6,
    0xd4, 0x11, 0x31, 0x0d, 0x17, 0xf4, 0x47, 0xc6, 0x0f, 0xe0, 0xfb, 0x25,
    0xeb, 0xf6, 0xd7, 0xc8, 0x14, 0x02, 0x2d, 0x08, 0xe9, 0xf4, 0x20, 0xb4,
    0x22, 0x1f, 0xee, 0xd3, 0x05, 0xd9, 0x9b, 0xe3, 0xe6, 0x31, 0xf1, 0xf6,
    0xe8, 0xda, 0xfe, 0xea, 0x18, 0x1f, 0x10, 0x8d, 0x13, 0xe4, 0xb7, 0xe4,
    0xda, 0x17, 0x18, 0xf7, 0x0b, 0x03, 0x3d, 0xf3, 0xf1, 0x1e, 0xfc, 0x3e,
    0xf3, 0x19, 0xe1, 0x0a, 0x0d, 0x37, 0x21, 0xf9, 0xd4, 0xec, 0x15, 0xab,
    0x12, 0x08, 0xf1, 0x00, 0xfd, 0xeb, 0xa2, 0x29, 0x05, 0x3d, 0x17, 0xeb,
    0xda, 0xf4, 0x19, 0xdc, 0xfc, 0xe1, 0x15, 0x81, 0xff, 0x13, 0xe2, 0xfa,
    0xee, 0x29, 0x34, 0x15, 0xd9, 0x25, 0x4c, 0xe8, 0x2b, 0x11, 0xe8, 0x39,
    0xfa, 0x11, 0xf4, 0xf5, 0xea, 0x17, 0x13, 0x00, 0x0b, 0x0a, 0x1a, 0xc1,
    0x2a, 0x1f, 0x15, 0x17, 0xef, 0xfb, 0xa1, 0xec, 0xde, 0x07, 0xf3, 0xf9,
    0xe1, 0xf5, 0xf3, 0xd2, 0xd9, 0x26, 0xcf, 0x9c, 0xf5, 0x13, 0x59, 0x25,
    0x9c, 0x25, 0x31, 0x2f, 0x40, 0x9e, 0xb3, 0xd2, 0xb6, 0x17, 0xa3, 0xa0,
    0xf3, 0x27, 0x1b, 0x3f, 0xa9, 0x0c, 0x25, 0x0b, 0x35, 0xe2, 0xf1, 0x28,
    0xbf, 0x40, 0x8b, 0xdf, 0xe7, 0x25, 0xee, 0x2f, 0x9d, 0xfd, 0x43, 0x0b,
    0x41, 0xf2, 0x14, 0xf3, 0xd1, 0x02, 0xfa, 0xc7, 0xe4, 0x10, 0x20, 0xcd,
    0xe5, 0xee, 0xf5, 0x2e, 0xd1, 0xb7, 0xd2, 0x12, 0xfa, 0xf5, 0xf8, 0xe2,
    0xd6, 0x3a, 0xfa, 0xf2, 0x0c, 0xd2, 0x01, 0x07, 0xe2, 0xbc, 0x20, 0x35,
    0xf9, 0xe1, 0x9d, 0xd2, 0xf6, 0xfe, 0xfc, 0x13, 0xbd, 0xfc, 0x0b, 0xde,
    0xf6, 0xd2, 0xfa, 0x18, 0xe5, 0x10, 0xda, 0x9f, 0x1b, 0x1e, 0x46, 0xae,
    0x43, 0x89, 0xc2, 0x1e, 0xad, 0x3f, 0x4c, 0x5b, 0x1a, 0xdb, 0xf5, 0x0f,
    0x2a, 0x06, 0x38, 0x01, 0x33, 0x81, 0xa7, 0x09, 0xc2, 0x10, 0x4a, 0x54,
    0x4b, 0xfb, 0xc5, 0x06, 0x0f, 0x22, 0x0d, 0x01, 0x36, 0xc6, 0x0b, 0x19,
    0xd3, 0x3c, 0x52, 0x33, 0x19, 0xdf, 0xe5, 0xaf, 0x1a, 0x08, 0x02, 0xf9,
    0xa8, 0x13, 0xea, 0x15, 0xef, 0x9a, 0xd1, 0xad, 0xf7, 0x0a, 0xdd, 0x2a,
    0x14, 0x12, 0x05, 0x0b, 0xae, 0xdd, 0xfa, 0x08, 0x00, 0xce, 0xf8, 0xd0,
    0x1c, 0xed, 0xfd, 0x49, 0x20, 0x12, 0xe0, 0xce, 0xef, 0x1a, 0x25, 0xbb,
    0xf3, 0xf7, 0x17, 0xf8, 0x1a, 0x17, 0xfd, 0x15, 0x21, 0x18, 0x2b, 0x12,
    0xa3, 0x0d, 0xfa, 0x3b, 0x0e, 0x9d, 0xf2, 0xdc, 0xe7, 0xd9, 0x0b, 0x54,
    0x12, 0xe1, 0xfe, 0xfa, 0xba, 0x00, 0xe4, 0x09, 0xec, 0xf1, 0xe3, 0xea,
    0x06, 0x24, 0xe8, 0x52, 0x2a, 0xe4, 0x18, 0xcc, 0xf4, 0x16, 0x08, 0xe4,
    0x33, 0x10, 0xef, 0xbb, 0x32, 0x0b, 0x12, 0x10, 0xf7, 0x13, 0xe2, 0x0f,
    0x81, 0x05, 0xe2, 0x0b, 0x1a, 0xcf, 0x0b, 0xdd, 0xe4, 0x05, 0xef, 0x1e,
    0x2b, 0xe6, 0xd1, 0x08, 0xc7, 0x02, 0xd4, 0xfa, 0xed, 0xe3, 0xfa, 0xf2,
    0xe9, 0xeb, 0x00, 0x2f, 0xf5, 0x09, 0xf9, 0xda, 0xf5, 0x03, 0x1f, 0xb3,
    0x1d, 0x21, 0xeb, 0xef, 0x2d, 0xfb, 0x0b, 0x44, 0xf0, 0x39, 0x1b, 0xcb,
    0xf9, 0x91, 0xb7, 0x26, 0x1e, 0xe0, 0xec, 0x2c, 0xd7, 0x0f, 0x18, 0xc1,
    0xf0, 0xf4, 0x28, 0x07, 0x10, 0x81, 0xe3, 0x0d, 0xee, 0xed, 0xd5, 0x3a,
    0x2b, 0x26, 0x08, 0xd4, 0xeb, 0x3f, 0x17, 0x11, 0x0d, 0x9b, 0xf9, 0x17,
    0xfd, 0x21, 0x09, 0x3e, 0xfa, 0x08, 0x05, 0xf9, 0x1f, 0x1a, 0x29, 0xf6,
    0x2c, 0xbc, 0xc3, 0xcd, 0xdd, 0x27, 0xa4, 0x57, 0x11, 0x25, 0x2f, 0xda,
    0x08, 0x29, 0xf7, 0xd0, 0xeb, 0x91, 0xc7, 0xcc, 0x17, 0xf9, 0xe9, 0x3f,
    0x2e, 0xdc, 0x31, 0xc1, 0x2e, 0x22, 0x31, 0xb4, 0xe6, 0xc3, 0xcd, 0x1a,
    0xdb, 0x1a, 0xf0, 0x5c, 0x1c, 0xd8, 0xf0, 0xd8, 0xe7, 0x0b, 0x16, 0xd4,
    0x31, 0xe3, 0xad, 0x1b, 0xd9, 0xf7, 0xc4, 0x42, 0x12, 0xe7, 0xfc, 0xd7,
    0x2c, 0x1f, 0x29, 0xdb, 0x22, 0x9c, 0x98, 0xf0, 0xfc, 0x13, 0xe5, 0x4a,
    0x06, 0xe2, 0xf5, 0xe2, 0x39, 0x40, 0x27, 0xa4, 0x14, 0xc0, 0xea, 0xe6,
    0xfe, 0xf5, 0xe8, 0x13, 0xe1, 0x22, 0x08, 0x11, 0xf0, 0x22, 0x4f, 0xdf,
    0x99, 0xe4, 0x0f, 0x25, 0x13, 0x00, 0xc4, 0xea, 0xd3, 0xf4, 0xfd, 0x6c,
    0xee, 0x0d, 0x2c, 0x1f, 0x0d, 0xea, 0xe7, 0x20, 0x03, 0xcd, 0xc7, 0xfc,
    0xf4, 0xf2, 0x08, 0x66, 0xfc, 0x1e, 0xed, 0x2b, 0xcf, 0xb8, 0xc2, 0xef,
    0xfc, 0xd4, 0xa1, 0xfb, 0x30, 0x19, 0xf4, 0x62, 0x35, 0x1a, 0x22, 0xd9,
    0xcf, 0x04, 0x10, 0x10, 0x14, 0xe4, 0x98, 0xd5, 0xe0, 0xc7, 0x2c, 0x66,
    0xf7, 0x07, 0x14, 0xe1, 0xb4, 0x1f, 0xda, 0x30, 0x16, 0xd2, 0x92, 0xff,
    0xf0, 0xd5, 0xe4, 0x66, 0x21, 0x40, 0xee, 0xed, 0xe7, 0xdf, 0xee, 0xe9,
    0x3a, 0xef, 0xaa, 0xce, 0x0c, 0x11, 0x3b, 0x7e, 0x06, 0x34, 0x67, 0xd9,
    0xae, 0x17, 0x03, 0x2c, 0xe7, 0xa7, 0xa8, 0xf9, 0x14, 0xe2, 0x19, 0x4e,
    0x3a, 0xfe, 0x36, 0x05, 0xbc, 0x1a, 0x02, 0xff, 0xeb, 0xd2, 0x81, 0x21,
    0x0c, 0x0f, 0x0c, 0x4e, 0x1e, 0x26, 0xf5, 0x21, 0xd8, 0x03, 0x03, 0xdf,
    0x0c, 0xd8, 0xb5, 0xd2, 0xed, 0xd7, 0x2c, 0x52, 0x03, 0xff, 0x0e, 0xcf,
    0x83, 0x39, 0x15, 0xe0, 0xee, 0xbd, 0xab, 0xd8, 0x0b, 0xfb, 0x08, 0xe6,
    0x26, 0x0b, 0xd3, 0x0a, 0x96, 0x0c, 0xe7, 0x1b, 0xe0, 0xb9, 0xf0, 0xc7,
    0xe7, 0x1c, 0xff, 0x2a, 0x29, 0x14, 0xe9, 0x93, 0xf1, 0x3e, 0xf9, 0x09,
    0xe3, 0xe5, 0xfb, 0xca, 0x16, 0x0b, 0x10, 0x71, 0xe9, 0xea, 0xfb, 0xec,
    0xad, 0x20, 0xc0, 0xe6, 0x11, 0xc7, 0xd3, 0xe2, 0xf5, 0xe2, 0xee, 0xeb,
    0xfa, 0xed, 0xf4, 0xf0, 0xbf, 0x0d, 0x07, 0xe6, 0xfa, 0xf8, 0x20, 0xd8,
    0x16, 0x0d, 0xfc, 0x1b, 0xf7, 0x1a, 0xc8, 0xed, 0x1b, 0x48, 0xed, 0x04,
    0x25, 0x12, 0x17, 0xf1, 0x28, 0x0a, 0x21, 0x62, 0x17, 0xcf, 0xe9, 0xd8,
    0x81, 0x14, 0xd0, 0xc3, 0x16, 0xcb, 0xfa, 0xd4, 0x06, 0x0e, 0x1b, 0x20,
    0x1c, 0x07, 0x0d, 0x0a, 0xb8, 0xff, 0xf0, 0xf6, 0x12, 0xd9, 0x09, 0x12,
    0x10, 0x02, 0xd6, 0x3b, 0xfb, 0x25, 0xd4, 0xa9, 0x04, 0x36, 0x0f, 0x05,
    0x12, 0x2a, 0xf9, 0xe4, 0x07, 0xf2, 0x1b, 0x71, 0xec, 0xd5, 0x00, 0xf0,
    0xa7, 0xd8, 0x05, 0xd3, 0xd6, 0xd6, 0xb3, 0xef, 0xb5, 0xdd, 0xe4, 0xfa,
    0x25, 0x13, 0x2d, 0x1c, 0xe7, 0xe6, 0x16, 0x19, 0xf6, 0xd9, 0xc5, 0x1f,
    0xc9, 0x03, 0xe2, 0x39, 0x1f, 0x2d, 0x00, 0xce, 0x13, 0xcd, 0xf6, 0x05,
    0x02, 0x07, 0xaa, 0xdc, 0xf3, 0x22, 0x1f, 0x5e, 0x0a, 0xfe, 0x3c, 0xf0,
    0xdd, 0x0b, 0xf3, 0xd5, 0xe9, 0xf6, 0xee, 0xf0, 0xe9, 0xeb, 0x22, 0x09,
    0x16, 0x24, 0x39, 0x0e, 0xcc, 0x13, 0x03, 0x31, 0xe4, 0xeb, 0xb3, 0x04,
    0xdf, 0xe2, 0x1b, 0x27, 0x45, 0x1d, 0xd7, 0xee, 0xfa, 0xe3, 0xb4, 0xf1,
    0x2d, 0x19, 0xae, 0xf3, 0xf8, 0xe5, 0x05, 0x7c, 0xee, 0x01, 0x3a, 0xed,
    0xd4, 0x0d, 0xea, 0xc5, 0xd2, 0xbb, 0xd5, 0x01, 0xab, 0xee, 0xec, 0xde,
    0x08, 0x1d, 0x2a, 0x16, 0xdd, 0x1d, 0x1f, 0xf7, 0xe2, 0xf3, 0xec, 0x2f,
    0xd9, 0xe0, 0x17, 0x3f, 0x15, 0x26, 0xf0, 0xcf, 0x18, 0x19, 0xda, 0xf9,
    0x25, 0x21, 0xb2, 0x08, 0x0d, 0xf9, 0x17, 0x7f, 0x03, 0x0f, 0x03, 0xf8,
    0x05, 0xbc, 0xad, 0xfa, 0xdb, 0x04, 0x0c, 0x32, 0x05, 0xf3, 0xeb, 0xec,
    0x0e, 0x1d, 0x05, 0x14, 0x13, 0x01, 0xdd, 0x01, 0x03, 0x08, 0x8e, 0xed,
    0x10, 0x04, 0x0b, 0xe8, 0x15, 0xe5, 0x2b, 0x26, 0xf0, 0x07, 0x00, 0x00,
    0x0f, 0x00, 0x25, 0x1d, 0xf5, 0x1c, 0x00, 0xb0, 0x0a, 0x0d, 0xe9, 0xf6,
    0x04, 0xe6, 0xc1, 0xf5, 0xe3, 0x0c, 0xfd, 0x19, 0xec, 0x01, 0xef, 0xfa,
    0xed, 0x0d, 0x12, 0x01, 0xf4, 0xff, 0xdb, 0x12, 0xf9, 0x0d, 0x99, 0xfa,
    0x07, 0xf3, 0x24, 0x05, 0xf8, 0xce, 0x2b, 0x0f, 0x0c, 0xf5, 0xdf, 0x0a,
    0xf6, 0x17, 0x04, 0x01, 0x18, 0x05, 0xf9, 0xad, 0x0c, 0x07, 0xe6, 0x14,
    0x20, 0x02, 0xee, 0x04, 0xfd, 0x1b, 0xfd, 0x35, 0xe3, 0xf1, 0xe0, 0xd7,
    0x16, 0x06, 0xff, 0x14, 0x0c, 0x11, 0xf9, 0xf6, 0x27, 0xe7, 0x81, 0x0f,
    0x04, 0x02, 0x13, 0xdd, 0xf4, 0xde, 0x29, 0x08, 0xf1, 0x1c, 0x16, 0x08,
    0x0f, 0x19, 0x12, 0xfe, 0xf2, 0x1d, 0x0d, 0xc0, 0x17, 0x09, 0x12, 0xf0,
    0x09, 0x16, 0xb3, 0x07, 0xef, 0xdf, 0xb3, 0x54, 0x14, 0x1e, 0xe5, 0xc8,
    0xf6, 0xd7, 0xd9, 0x21, 0x0d, 0xfa, 0x04, 0xe5, 0x27, 0xe2, 0x04, 0x1a,
    0xfe, 0x21, 0x29, 0x81, 0x24, 0x12, 0x2c, 0xf4, 0x16, 0xd7, 0xf0, 0x14,
    0x1b, 0xe7, 0xe0, 0x28, 0xf5, 0xf3, 0xe7, 0xe7, 0xf3, 0x0e, 0x1e, 0x1d,
    0x19, 0xc0, 0xca, 0xfc, 0x01, 0xd4, 0xe0, 0x61, 0xdf, 0x05, 0xdd, 0xc6,
    0xc4, 0xdc, 0x1e, 0x22, 0x07, 0x09, 0xdd, 0xfc, 0xfd, 0x14, 0xd3, 0xef,
    0xf0, 0x22, 0xdd, 0xce, 0x35, 0x2b, 0x26, 0x1a, 0x18, 0x13, 0xf1, 0x11,
    0x01, 0x17, 0xf1, 0x1f, 0x0a, 0x20, 0x1e, 0xcd, 0x10, 0x1a, 0x47, 0xff,
    0x12, 0x19, 0xb2, 0x00, 0xe9, 0xe7, 0xcf, 0x46, 0x04, 0xdc, 0xe6, 0xb2,
    0xbf, 0x23, 0x1d, 0xe5, 0x3e, 0x08, 0xe2, 0x3d, 0xf3, 0xea, 0xe8, 0x01,
    0xea, 0x02, 0x05, 0x89, 0x2a, 0x2c, 0xf9, 0x02, 0x26, 0x02, 0xf0, 0xf9,
    0xec, 0xf2, 0x16, 0x5c, 0x1a, 0x2b, 0xd4, 0xcb, 0xe5, 0xeb, 0x21, 0xd0,
    0xbc, 0xec, 0xe5, 0xbc, 0xd5, 0xff, 0x0d, 0x0a, 0xb7, 0xf3, 0xe6, 0x05,
    0x1a, 0x1b, 0x37, 0x03, 0xc6, 0x1f, 0x1c, 0x16, 0xec, 0xcf, 0xc4, 0x1f,
    0xf9, 0xe8, 0xe3, 0x12, 0x19, 0x34, 0xd3, 0xeb, 0xf2, 0xf8, 0xee, 0x09,
    0x0c, 0x0b, 0xb6, 0xe7, 0x06, 0x11, 0xf8, 0x7f, 0xe8, 0xfa, 0x2f, 0xee,
    0xce, 0x06, 0x0b, 0xe0, 0xee, 0xd4, 0xee, 0x0e, 0xbb, 0xd6, 0xe6, 0x09,
    0x0f, 0x1a, 0x1b, 0x09, 0xd0, 0x19, 0x03, 0x04, 0xe4, 0xde, 0xc3, 0x1a,
    0xf3, 0xe0, 0x12, 0x2b, 0x36, 0x37, 0xf8, 0xea, 0xed, 0x13, 0xd1, 0x04,
    0x04, 0xf1, 0xb6, 0xf7, 0x1b, 0x0e, 0x1a, 0x5f, 0x0b, 0xe9, 0x1c, 0xfb,
    0xd4, 0x22, 0xe6, 0xb8, 0xf8, 0xda, 0xee, 0x15, 0xbe, 0xf5, 0xf6, 0xe9,
    0x1a, 0x04, 0x33, 0x0a, 0xc8, 0x2e, 0x0c, 0x03, 0xde, 0xef, 0xf4, 0x34,
    0xe8, 0xdd, 0xf4, 0x2f, 0x0c, 0x2d, 0xff, 0xf1, 0x05, 0x09, 0xfe, 0x0b,
    0xfc, 0x01, 0xd7, 0xeb, 0x09, 0x1f, 0x26, 0x5a, 0x14, 0x21, 0xe2, 0xde,
    0x0e, 0xb0, 0xc1, 0x0c, 0xd7, 0x2d, 0xf0, 0x55, 0xf8, 0x13, 0x07, 0x96,
    0x04, 0x37, 0x30, 0xdd, 0xd3, 0xa8, 0xcc, 0x0f, 0xd8, 0xf5, 0xeb, 0x4b,
    0xfc, 0xd3, 0xe5, 0xf1, 0xde, 0xed, 0x1b, 0x33, 0xdf, 0xbe, 0x09, 0x08,
    0x27, 0xed, 0x0f, 0x03, 0x14, 0x0d, 0x09, 0xac, 0x0b, 0x13, 0xc1, 0xe5,
    0x08, 0xf3, 0xc9, 0xde, 0xf9, 0x1d, 0xf2, 0x55, 0xf3, 0x1b, 0xf4, 0xc0,
    0x0e, 0x07, 0x1e, 0x13, 0x10, 0xd7, 0xc2, 0x04, 0x09, 0xdf, 0xf2, 0x30,
    0xf2, 0xe2, 0xee, 0x15, 0xee, 0x17, 0x13, 0x24, 0xff, 0xd1, 0x15, 0x13,
    0x0a, 0x24, 0x2f, 0x00, 0xfa, 0xfb, 0x1f, 0x95, 0xcf, 0x12, 0x04, 0xe6,
    0x1e, 0xd6, 0x81, 0xcb, 0xd4, 0x2d, 0xe5, 0x4b, 0xee, 0xf6, 0x16, 0xb6,
    0x1f, 0x19, 0xfa, 0xee, 0x1b, 0xdb, 0xbc, 0x10, 0xe3, 0xe4, 0xe3, 0x28,
    0x0e, 0xda, 0xd8, 0xff, 0xd0, 0xf3, 0x14, 0x3c, 0xfa, 0xee, 0xee, 0xd3,
    0xfe, 0x08, 0x32, 0x26, 0x28, 0xf5, 0x0a, 0xad, 0xc5, 0x3f, 0xfd, 0x13,
    0xe7, 0x29, 0x0d, 0x4b, 0xea, 0x22, 0xfb, 0xee, 0x05, 0x31, 0x37, 0xa3,
    0x38, 0x5a, 0xcc, 0xf8, 0x46, 0x13, 0x2e, 0x33, 0x40, 0xe9, 0x21, 0x5d,
    0x26, 0x55, 0x3c, 0xe7, 0xfd, 0x61, 0xe0, 0xe2, 0x14, 0xac, 0x26, 0x04,
    0xe3, 0x0b, 0xf4, 0x38, 0x23, 0x0d, 0x04, 0xc5, 0x3f, 0x17, 0x44, 0x49,
    0x35, 0x00, 0xe6, 0xee, 0x43, 0x21, 0xfd, 0x45, 0xdf, 0x06, 0x09, 0xd8,
    0xcf, 0xf1, 0x16, 0x42, 0xf9, 0xfd, 0xf9, 0x1a, 0x0b, 0xca, 0x30, 0xf9,
    0xed, 0xf3, 0x3b, 0x92, 0xeb, 0x5c, 0x25, 0x3b, 0x1f, 0x33, 0xd2, 0x0c,
    0x41, 0x1c, 0xd6, 0xf8, 0x3a, 0x03, 0x55, 0xc1, 0x1b, 0x17, 0xc1, 0x1d,
    0xf3, 0xec, 0xad, 0x11, 0x13, 0x12, 0xcd, 0x1d, 0x3d, 0xd5, 0x56, 0x81,
    0x43, 0x59, 0xfb, 0xf6, 0xca, 0x14, 0xb4, 0xf2, 0x13, 0xca, 0x1a, 0x5e,
    0xf9, 0x0b, 0xe7, 0xc7, 0xff, 0x49, 0x27, 0x03, 0xee, 0xb7, 0xc6, 0x3a,
    0x10, 0xf8, 0x42, 0x49, 0xef, 0x47, 0x47, 0xe0, 0x04, 0x22, 0x67, 0x20,
    0xd5, 0xd4, 0xd8, 0x1a, 0x17, 0x0b, 0xb7, 0xf4, 0xe0, 0xde, 0xa5, 0xfc,
    0xe4, 0x0f, 0x26, 0x22, 0xe9, 0x15, 0xff, 0x0c, 0x12, 0xe0, 0xd0, 0x15,
    0xa3, 0x06, 0x81, 0x04, 0xeb, 0x26, 0xe6, 0x27, 0xb4, 0x14, 0x23, 0xfb,
    0x0c, 0x18, 0xf0, 0x0d, 0xb9, 0xf1, 0xe9, 0xdd, 0xe6, 0x15, 0xfd, 0xf5,
    0x02, 0xd3, 0xc4, 0x2e, 0xd3, 0xe1, 0xe0, 0x03, 0xe4, 0x0b, 0xa9, 0x06,
    0xe8, 0x0d, 0x18, 0x15, 0xcc, 0x05, 0x01, 0x09, 0xd7, 0xf6, 0xfc, 0x14,
    0xe4, 0x11, 0x8d, 0xef, 0xfe, 0xf4, 0xe7, 0xed, 0xce, 0x1d, 0x16, 0x0c,
    0x05, 0x19, 0x0d, 0xf3, 0xcf, 0xf1, 0xb4, 0xb4, 0xee, 0x22, 0x18, 0xd9,
    0x5d, 0x03, 0xc6, 0x17, 0xda, 0x18, 0x22, 0x52, 0x03, 0xf3, 0xdb, 0x00,
    0x0e, 0x11, 0x1a, 0x14, 0x37, 0x11, 0xf6, 0xfb, 0x0e, 0x2e, 0x32, 0x4a,
    0x14, 0xf6, 0xfa, 0xf7, 0xf2, 0x18, 0xee, 0xfa, 0xdd, 0x21, 0x30, 0xf3,
    0x0f, 0x2f, 0x37, 0x33, 0x09, 0x15, 0xd7, 0xd6, 0x14, 0xc9, 0xc0, 0xff,
    0xcf, 0x02, 0x61, 0x30, 0x2c, 0x31, 0x65, 0xa4, 0x04, 0xee, 0xeb, 0x16,
    0xf6, 0x25, 0xbd, 0x1c, 0xfd, 0x32, 0x51, 0x20, 0xc7, 0x04, 0x3f, 0x9f,
    0xe0, 0x1a, 0xf7, 0x2c, 0xe1, 0xc6, 0xae, 0xeb, 0xf8, 0x5b, 0xf0, 0x3c,
    0xf7, 0x1f, 0x2d, 0x9a, 0xfd, 0x06, 0xf3, 0xee, 0x0e, 0x06, 0xac, 0x25,
    0xd7, 0x2f, 0x3f, 0x18, 0x31, 0x1e, 0x60, 0xf3, 0x16, 0x2f, 0x01, 0x45,
    0xce, 0x1d, 0xc4, 0x33, 0xf5, 0x44, 0x34, 0x25, 0x0a, 0x29, 0x14, 0xe3,
    0x0a, 0x17, 0xdc, 0x40, 0x0e, 0xc9, 0xc5, 0x03, 0xec, 0x02, 0x08, 0x03,
    0x0b, 0x31, 0x28, 0xce, 0x2e, 0x1b, 0xf8, 0xeb, 0x0c, 0xfc, 0xcd, 0xd8,
    0xca, 0x5c, 0x0f, 0xdb, 0xd9, 0x08, 0x7f, 0xb7, 0x2d, 0x00, 0x04, 0x2d,
    0x28, 0x07, 0x04, 0x2b, 0xcc, 0x48, 0x29, 0xe3, 0x0b, 0x33, 0x38, 0xd2,
    0x1c, 0x15, 0xfa, 0x27, 0xf6, 0x04, 0xab, 0x00, 0x25, 0x43, 0x3b, 0xff,
    0x2d, 0x0b, 0x4d, 0x9a, 0x2c, 0x19, 0x17, 0xd7, 0x03, 0xf7, 0xe8, 0x0e,
    0xd2, 0x07, 0x0f, 0x37, 0xe5, 0xa4, 0x8b, 0x04, 0xef, 0x17, 0xec, 0x29,
    0x1f, 0x0f, 0x24, 0xf3, 0xcd, 0x01, 0xf8, 0x16, 0xe5, 0x0c, 0xe5, 0xe2,
    0xee, 0xf5, 0xe2, 0x21, 0xfe, 0x02, 0x09, 0xd1, 0x19, 0x20, 0x0e, 0xd9,
    0xf4, 0xe6, 0x08, 0xff, 0x1b, 0x10, 0x1c, 0x3a, 0xf7, 0x21, 0x0d, 0x20,
    0xad, 0xeb, 0xf6, 0x0c, 0xe2, 0xb6, 0x81, 0x02, 0x15, 0xe5, 0xdd, 0x34,
    0x26, 0xf9, 0x0a, 0xec, 0x08, 0xe6, 0xd9, 0xf8, 0x1e, 0xf3, 0xdc, 0xd3,
    0xea, 0x1a, 0xe8, 0x53, 0xfe, 0x2a, 0xf2, 0xf7, 0x25, 0x34, 0x38, 0xf1,
    0x31, 0xe3, 0xdd, 0xed, 0x23, 0x0b, 0x05, 0x60, 0x20, 0xf1, 0x01, 0x22,
    0xd6, 0x18, 0xd8, 0xfc, 0x0f, 0xa7, 0x89, 0xd4, 0xd8, 0xe7, 0x1a, 0x1d,
    0x0b, 0x01, 0x2d, 0xd7, 0xee, 0x16, 0xc4, 0x05, 0xed, 0x07, 0xd5, 0xdd,
    0x17, 0x18, 0xe9, 0x33, 0x33, 0x10, 0xf0, 0xe5, 0x23, 0x30, 0x02, 0xf5,
    0x0e, 0xe1, 0xed, 0xfc, 0x10, 0x00, 0xfa, 0x37, 0x10, 0x07, 0x2a, 0x0c,
    0x0a, 0xde, 0xbb, 0x18, 0x0e, 0xe3, 0xe6, 0x22, 0x10, 0xd7, 0xf6, 0xe3,
    0x06, 0xd1, 0x07, 0xf5, 0x06, 0xe6, 0xd5, 0xfd, 0xf6, 0x13, 0xf0, 0x0c,
    0x1c, 0x11, 0x12, 0x99, 0x06, 0x33, 0x2d, 0xfe, 0xf7, 0xdf, 0xe9, 0x08,
    0xf0, 0xff, 0xfc, 0x4e, 0xf3, 0x00, 0xe8, 0xfb, 0x0a, 0x24, 0x1d, 0x0c,
    0x0d, 0xd4, 0xd7, 0x1f, 0xea, 0xde, 0xd3, 0x22, 0xfb, 0xf2, 0xef, 0x04,
    0xfe, 0xd4, 0xe2, 0x1a, 0x1c, 0xd3, 0xd6, 0x1d, 0x15, 0x19, 0xf5, 0xf3,
    0x08, 0xf0, 0x25, 0x81, 0x23, 0x2a, 0x0e, 0xeb, 0x09, 0xf3, 0xe7, 0x18,
    0x15, 0x05, 0x13, 0x52, 0xf0, 0x01, 0x02, 0xfb, 0x0c, 0x08, 0xfd, 0x07,
    0xf8, 0x07, 0x15, 0x28, 0x12, 0xf5, 0xb2, 0x1d, 0xf8, 0x03, 0xea, 0xed,
    0xe6, 0xf9, 0xf5, 0x09, 0x18, 0xfc, 0xf8, 0x08, 0x01, 0xf0, 0xfd, 0x02,
    0x03, 0xf5, 0x04, 0x8a, 0x17, 0x1f, 0x18, 0x08, 0x0b, 0xf3, 0x17, 0x0a,
    0x20, 0x1c, 0x0f, 0x21, 0xfe, 0x03, 0xe7, 0x06, 0x03, 0xf2, 0xda, 0x0e,
    0x12, 0xc2, 0xa8, 0x24, 0xce, 0x22, 0x20, 0xfa, 0xf4, 0x0b, 0xd6, 0x2e,
    0x0f, 0x11, 0xe6, 0x0a, 0xc5, 0xf8, 0xe1, 0x0a, 0xff, 0xdc, 0x89, 0x10,
    0x0f, 0xe9, 0xfa, 0x0c, 0xd7, 0xd7, 0x03, 0x31, 0x15, 0x23, 0x16, 0x28,
    0xde, 0x0c, 0x07, 0x16, 0xfa, 0x04, 0x07, 0xa9, 0x11, 0xfe, 0x9f, 0x1b,
    0x1a, 0xbd, 0xac, 0x19, 0xef, 0x1a, 0x23, 0x09, 0x0c, 0xf0, 0xd4, 0x11,
    0xf9, 0x21, 0x05, 0xfb, 0xc5, 0xdc, 0xda, 0xfb, 0x0e, 0xdb, 0xac, 0x02,
    0x04, 0x11, 0x14, 0x0f, 0xea, 0xd5, 0x15, 0x2f, 0x0b, 0xf5, 0x1c, 0x29,
    0xf0, 0x04, 0x0d, 0xfc, 0x09, 0xea, 0xff, 0xc5, 0x01, 0xf4, 0xad, 0xfa,
    0x30, 0xea, 0xba, 0x15, 0x08, 0x1f, 0x05, 0x09, 0xfe, 0x11, 0xeb, 0x11,
    0xf4, 0x1c, 0xf3, 0x1e, 0xde, 0xe1, 0xf3, 0xff, 0x09, 0xc5, 0x81, 0x17,
    0xfc, 0xe9, 0xf3, 0x06, 0xe6, 0xbd, 0xef, 0x2c, 0xf8, 0x16, 0x01, 0x4d,
    0x05, 0x0f, 0x03, 0xf3, 0x0b, 0x05, 0xed, 0xab, 0xed, 0x3f, 0x7b, 0x36,
    0x35, 0xab, 0xb0, 0x18, 0xf0, 0x1f, 0xd4, 0x7f, 0xd0, 0x0e, 0x44, 0xd1,
    0x0f, 0x06, 0x60, 0x19, 0x24, 0xde, 0xf8, 0x01, 0xeb, 0x36, 0xf2, 0x63,
    0x15, 0xe8, 0x42, 0xc2, 0x36, 0x4a, 0x41, 0x20, 0x45, 0xfb, 0xda, 0xfc,
    0x17, 0x14, 0xc1, 0x6c, 0x0c, 0x15, 0xf7, 0x40, 0xf3, 0xfd, 0x3f, 0xc9,
    0x00, 0xc8, 0xdd, 0x20, 0xd9, 0xd9, 0xc1, 0x47, 0x19, 0x09, 0x1f, 0x16,
    0x10, 0xf8, 0x26, 0xf4, 0x0d, 0x04, 0xb1, 0x35, 0x20, 0xee, 0xcb, 0x53,
    0xf0, 0xdf, 0x40, 0xc8, 0xfa, 0x40, 0x61, 0xfa, 0x03, 0xad, 0x1e, 0xe8,
    0x33, 0xf5, 0xe0, 0x33, 0x15, 0xcf, 0x12, 0xe3, 0x19, 0x0b, 0xfd, 0xcf,
    0xe5, 0x04, 0xe1, 0xd5, 0xdb, 0xc9, 0xaa, 0x6b, 0xd6, 0xfb, 0x13, 0x12,
    0x1b, 0x3c, 0x57, 0x2e, 0x27, 0xe2, 0xd4, 0xf0, 0x05, 0x3b, 0xa0, 0x2f,
    0xd9, 0x39, 0x37, 0xcb, 0xfb, 0xfd, 0x57, 0xdb, 0x04, 0xa8, 0xe2, 0x3a,
    0x3c, 0x1a, 0xc0, 0x6d, 0xc7, 0x14, 0xe3, 0x36, 0x22, 0xfa, 0xff, 0xff,
    0x04, 0x00, 0x00, 0x00, 0x60, 0x00, 0x00, 0x00, 0x8b, 0xfe, 0xff, 0xff,
    0xa5, 0x02, 0x00, 0x00, 0x41, 0x01, 0x00, 0x00, 0xea, 0x00, 0x00, 0x00,
    0x6e, 0x01, 0x00, 0x00, 0x77, 0xff, 0xff, 0xff, 0xef, 0x00, 0x00, 0x00,
    0x36, 0xff, 0xff, 0xff, 0x21, 0xff, 0xff, 0xff, 0x72, 0x00, 0x00, 0x00,
    0x17, 0xfe, 0xff, 0xff, 0x2c, 0xff, 0xff, 0xff, 0xfd, 0xfe, 0xff, 0xff,
    0xdc, 0x00, 0x00, 0x00, 0x19, 0x00, 0x00, 0x00, 0x29, 0xff, 0xff, 0xff,
    0x17, 0x01, 0x00, 0x00, 0x0c, 0x03, 0x00, 0x00, 0xb4, 0xff, 0xff, 0xff,
    0x9b, 0x00, 0x00, 0x00, 0x9f, 0xfe, 0xff, 0xff, 0x61, 0x00, 0x00, 0x00,
    0xcc, 0x00, 0x00, 0x00, 0xa6, 0xff, 0xff, 0xff, 0x8e, 0xfa, 0xff, 0xff,
    0x04, 0x00, 0x00, 0x00, 0x80, 0x01, 0x00, 0x00, 0xe8, 0x5d, 0x07, 0x94,
    0xf3, 0x2f, 0x4c, 0x87, 0xec, 0x87, 0x38, 0xf0, 0x1f, 0xf0, 0x2c, 0x5c,
    0xa8, 0x56, 0x18, 0x0c, 0xd8, 0x81, 0xc9, 0xe3, 0x3f, 0x9e, 0xef, 0x81,
    0x05, 0x79, 0xec, 0x6c, 0x8f, 0x63, 0xbd, 0x97, 0x85, 0xda, 0xf3, 0xf6,
    0xa9, 0x96, 0x9b, 0xc6, 0x1d, 0x08, 0x8c, 0xaa, 0x90, 0xce, 0x08, 0x3a,
    0x4e, 0xbf, 0x01, 0x7d, 0x2e, 0x68, 0xe1, 0xc2, 0x1e, 0x18, 0x5e, 0xc0,
    0x5d, 0xdb, 0x06, 0xe3, 0xe9, 0x7f, 0x25, 0x38, 0xd0, 0x87, 0x3e, 0x05,
    0xe6, 0xe3, 0x22, 0x7f, 0xe7, 0x3b, 0xc0, 0x1a, 0xbb, 0x2a, 0xe8, 0x8f,
    0x29, 0x2d, 0x0b, 0x06, 0xf0, 0x11, 0x5f, 0xff, 0xda, 0x7e, 0xd0, 0xeb,
    0x47, 0x25, 0x12, 0x81, 0x13, 0xe2, 0x32, 0x53, 0xc4, 0x84, 0x9e, 0x08,
    0xaa, 0x47, 0xf1, 0x4d, 0xcd, 0xb4, 0xc5, 0xcf, 0xa7, 0x85, 0xe6, 0xc6,
    0x8c, 0xfd, 0x48, 0x8b, 0x7d, 0x33, 0x6d, 0x05, 0xd4, 0x95, 0xdb, 0x4b,
    0x12, 0x8e, 0x6c, 0x81, 0x8e, 0x94, 0x5d, 0x1e, 0x53, 0x7f, 0xe0, 0xd0,
    0x1e, 0x2e, 0x24, 0x8f, 0x65, 0xc4, 0x56, 0xfe, 0x7e, 0xb2, 0xac, 0x3e,
    0xb3, 0x23, 0xc0, 0x45, 0x5e, 0x99, 0xa4, 0xf8, 0x7f, 0x9d, 0xed, 0x28,
    0xd4, 0x10, 0x5b, 0x6b, 0x91, 0xce, 0xe2, 0xcc, 0xbc, 0x15, 0xaa, 0xaa,
    0xe3, 0xa6, 0x28, 0x92, 0x2a, 0x0a, 0x14, 0x92, 0x1e, 0x7f, 0xf2, 0x23,
    0xe5, 0xe9, 0x14, 0xb4, 0x34, 0xf7, 0x3d, 0x3c, 0x15, 0x0f, 0x16, 0x3a,
    0xd4, 0xdc, 0x03, 0x11, 0x11, 0xd4, 0xc9, 0x12, 0xbc, 0xd7, 0x4b, 0x51,
    0xba, 0x57, 0xac, 0x0a, 0x13, 0x17, 0xe0, 0x4e, 0xec, 0x81, 0x9d, 0xee,
    0x85, 0x59, 0x5d, 0x96, 0x43, 0x83, 0xa4, 0xb3, 0x07, 0x81, 0x55, 0x27,
    0x41, 0xb3, 0xce, 0x64, 0xbf, 0x23, 0xc6, 0xfd, 0xac, 0x55, 0x2f, 0xa1,
    0xd6, 0x2a, 0x0f, 0xec, 0xd8, 0x2c, 0x19, 0x4f, 0x57, 0x7e, 0xe5, 0xe7,
    0x57, 0x46, 0x40, 0x81, 0x39, 0x8a, 0x0e, 0x6d, 0x35, 0xdd, 0x3f, 0x52,
    0xe3, 0xd9, 0x96, 0x28, 0x3d, 0x06, 0xcb, 0x35, 0xf6, 0xff, 0x82, 0x86,
    0x34, 0xde, 0x97, 0xf2, 0x81, 0x59, 0xa3, 0x6b, 0x9c, 0x3d, 0x26, 0xc0,
    0x01, 0xbb, 0xe7, 0xb7, 0xc2, 0x3f, 0xec, 0x02, 0xce, 0x81, 0x07, 0xd3,
    0x1f, 0xaf, 0xef, 0x5a, 0xb9, 0x41, 0xb5, 0xf0, 0xe1, 0x22, 0x02, 0xe8,
    0xf6, 0x35, 0x46, 0x1f, 0x08, 0x03, 0x38, 0x0e, 0xce, 0xaa, 0xfb, 0x33,
    0xfe, 0xe1, 0xdd, 0x7f, 0x1c, 0xf6, 0xf1, 0xdc, 0xb3, 0x3a, 0x17, 0xcb,
    0x03, 0x12, 0x05, 0x10, 0x26, 0xf9, 0x5e, 0x18, 0x9d, 0x87, 0x1c, 0x4f,
    0xaa, 0x16, 0xd1, 0x5c, 0x1e, 0x49, 0xa8, 0xc2, 0x81, 0x37, 0xdc, 0xc5,
    0x11, 0x34, 0x78, 0x43, 0x40, 0x39, 0xff, 0xb5, 0x1a, 0xfc, 0xff, 0xff,
    0x04, 0x00, 0x00, 0x00, 0x40, 0x00, 0x00, 0x00, 0xeb, 0x04, 0x00, 0x00,
    0x00, 0x00, 0x00, 0x00, 0xa5, 0x01, 0x00, 0x00, 0x27, 0x00, 0x00, 0x00,
    0xcc, 0x01, 0x00, 0x00, 0x00, 0x00, 0x00, 0x00, 0xcb, 0x00, 0x00, 0x00,
    0x00, 0x00, 0x00, 0x00, 0x41, 0x01, 0x00, 0x00, 0x42, 0x00, 0x00, 0x00,
    0x8c, 0x02, 0x00, 0x00, 0xd2, 0xff, 0xff, 0xff, 0x00, 0x00, 0x00, 0x00,
    0x01, 0x00, 0x00, 0x00, 0xc2, 0x01, 0x00, 0x00, 0x88, 0x01, 0x00, 0x00,
    0x66, 0xfc, 0xff, 0xff, 0x04, 0x00, 0x00, 0x00, 0x20, 0x00, 0x00, 0x00,
    0x46, 0x39, 0x8d, 0x85, 0x2e, 0xfd, 0x7f, 0x01, 0xff, 0xcb, 0xca, 0x3f,
    0x4c, 0xce, 0xfa, 0x0e, 0x9a, 0x06, 0xed, 0x51, 0x9e, 0xe3, 0x81, 0xdf,
    0x9c, 0xb8, 0x32, 0xe8, 0xef, 0x5a, 0x5b, 0x73, 0x92, 0xfc, 0xff, 0xff,
    0x04, 0x00, 0x00, 0x00, 0x08, 0x00, 0x00, 0x00, 0x08, 0x00, 0x00, 0x00,
    0xf9, 0xff, 0xff, 0xff, 0xa6, 0xfc, 0xff, 0xff, 0x04, 0x00, 0x00, 0x00,
    0x08, 0x00, 0x00, 0x00, 0x01, 0x00, 0x00, 0x00, 0x02, 0x00, 0x00, 0x00,
    0xbc, 0xe4, 0xff, 0xff, 0xbe, 0xfc, 0xff, 0xff, 0x04, 0x00, 0x00, 0x00,
    0x04, 0x00, 0x00, 0x00, 0x14, 0x00, 0x00, 0x00, 0xce, 0xfc, 0xff, 0xff,
    0x04, 0x00, 0x00, 0x00, 0x04, 0x00, 0x00, 0x00, 0x3c, 0x00, 0x00, 0x00,
    0xde, 0xfc, 0xff, 0xff, 0x04, 0x00, 0x00, 0x00, 0x04, 0x00, 0x00, 0x00,
    0x01, 0x00, 0x00, 0x00, 0xee, 0xfc, 0xff, 0xff, 0x04, 0x00, 0x00, 0x00,
    0x04, 0x00, 0x00, 0x00, 0x00, 0x00, 0x00, 0x00, 0x00, 0xe5, 0xff, 0xff,
    0x04, 0xe5, 0xff, 0xff, 0x0f, 0x00, 0x00, 0x00, 0x4d, 0x4c, 0x49, 0x52,
    0x20, 0x43, 0x6f, 0x6e, 0x76, 0x65, 0x72, 0x74, 0x65, 0x64, 0x2e, 0x00,
    0x01, 0x00, 0x00, 0x00, 0x14, 0x00, 0x00, 0x00, 0x00, 0x00, 0x0e, 0x00,
    0x18, 0x00, 0x14, 0x00, 0x10, 0x00, 0x0c, 0x00, 0x08, 0x00, 0x04, 0x00,
    0x0e, 0x00, 0x00, 0x00, 0x14, 0x00, 0x00, 0x00, 0x1c, 0x00, 0x00, 0x00,
    0x8c, 0x03, 0x00, 0x00, 0x90, 0x03, 0x00, 0x00, 0x94, 0x03, 0x00, 0x00,
    0x04, 0x00, 0x00, 0x00, 0x6d, 0x61, 0x69, 0x6e, 0x00, 0x00, 0x00, 0x00,
    0x0d, 0x00, 0x00, 0x00, 0x3c, 0x03, 0x00, 0x00, 0xdc, 0x02, 0x00, 0x00,
    0x84, 0x02, 0x00, 0x00, 0x5c, 0x02, 0x00, 0x00, 0x00, 0x02, 0x00, 0x00,
    0xac, 0x01, 0x00, 0x00, 0x68, 0x01, 0x00, 0x00, 0x24, 0x01, 0x00, 0x00,
    0xe0, 0x00, 0x00, 0x00, 0xac, 0x00, 0x00, 0x00, 0x70, 0x00, 0x00, 0x00,
    0x38, 0x00, 0x00, 0x00, 0x04, 0x00, 0x00, 0x00, 0x62, 0xfd, 0xff, 0xff,
    0x14, 0x00, 0x00, 0x00, 0x00, 0x00, 0x00, 0x09, 0x14, 0x00, 0x00, 0x00,
    0x18, 0x00, 0x00, 0x00, 0x08, 0x00, 0x00, 0x00, 0xa6, 0xfd, 0xff, 0xff,
    0x00, 0x00, 0x80, 0x3f, 0x01, 0x00, 0x00, 0x00, 0x1d, 0x00, 0x00, 0x00,
    0x01, 0x00, 0x00, 0x00, 0x1c, 0x00, 0x00, 0x00, 0x92, 0xfd, 0xff, 0xff,
    0x14, 0x00, 0x00, 0x00, 0x00, 0x00, 0x00, 0x08, 0x10, 0x00, 0x00, 0x00,
    0x14, 0x00, 0x00, 0x00, 0x07, 0x00, 0x00, 0x00, 0xd8, 0xe5, 0xff, 0xff,
    0x01, 0x00, 0x00, 0x00, 0x1c, 0x00, 0x00, 0x00, 0x03, 0x00, 0x00, 0x00,
    0x1b, 0x00, 0x00, 0x00, 0x08, 0x00, 0x00, 0x00, 0x07, 0x00, 0x00, 0x00,
    0xc6, 0xfd, 0xff, 0xff, 0x14, 0x00, 0x00, 0x00, 0x00, 0x00, 0x00, 0x08,
    0x14, 0x00, 0x00, 0x00, 0x18, 0x00, 0x00, 0x00, 0x07, 0x00, 0x00, 0x00,
    0x5e, 0xfd, 0xff, 0xff, 0x00, 0x00, 0x00, 0x01, 0x01, 0x00, 0x00, 0x00,
    0x1b, 0x00, 0x00, 0x00, 0x03, 0x00, 0x00, 0x00, 0x1a, 0x00, 0x00, 0x00,
    0x0a, 0x00, 0x00, 0x00, 0x09, 0x00, 0x00, 0x00, 0xfe, 0xfd, 0xff, 0xff,
    0x14, 0x00, 0x00, 0x00, 0x00, 0x00, 0x00, 0x1b, 0x10, 0x00, 0x00, 0x00,
    0x14, 0x00, 0x00, 0x00, 0x06, 0x00, 0x00, 0x00, 0x44, 0xe6, 0xff, 0xff,
    0x01, 0x00, 0x00, 0x00, 0x1a, 0x00, 0x00, 0x00, 0x02, 0x00, 0x00, 0x00,
    0x19, 0x00, 0x00, 0x00, 0x06, 0x00, 0x00, 0x00, 0x2e, 0xfe, 0xff, 0xff,
    0x14, 0x00, 0x00, 0x00, 0x00, 0x00, 0x00, 0x01, 0x1c, 0x00, 0x00, 0x00,
    0x20, 0x00, 0x00, 0x00, 0x04, 0x00, 0x00, 0x00, 0xf0, 0xfe, 0xff, 0xff,
    0x00, 0x00, 0x00, 0x01, 0x01, 0x00, 0x00, 0x00, 0x01, 0x00, 0x00, 0x00,
    0x01, 0x00, 0x00, 0x00, 0x19, 0x00, 0x00, 0x00, 0x03, 0x00, 0x00, 0x00,
    0x18, 0x00, 0x00, 0x00, 0x0c, 0x00, 0x00, 0x00, 0x0b, 0x00, 0x00, 0x00,
    0x6e, 0xfe, 0xff, 0xff, 0x14, 0x00, 0x00, 0x00, 0x00, 0x00, 0x00, 0x05,
    0x24, 0x00, 0x00, 0x00, 0x28, 0x00, 0x00, 0x00, 0x05, 0x00, 0x00, 0x00,
    0x7e, 0xff, 0xff, 0xff, 0x02, 0x00, 0x00, 0x00, 0x02, 0x00, 0x00, 0x00,
    0x02, 0x00, 0x00, 0x00, 0x02, 0x00, 0x00, 0x00, 0x00, 0x00, 0x00, 0x01,
    0x01, 0x00, 0x00, 0x00, 0x18, 0x00, 0x00, 0x00, 0x01, 0x00, 0x00, 0x00,
    0x17, 0x00, 0x00, 0x00, 0xae, 0xfe, 0xff, 0xff, 0x14, 0x00, 0x00, 0x00,
    0x00, 0x00, 0x00, 0x01, 0x1c, 0x00, 0x00, 0x00, 0x20, 0x00, 0x00, 0x00,
    0x04, 0x00, 0x00, 0x00, 0x70, 0xff, 0xff, 0xff, 0x00, 0x00, 0x00, 0x01,
    0x01, 0x00, 0x00, 0x00, 0x01, 0x00, 0x00, 0x00, 0x01, 0x00, 0x00, 0x00,
    0x17, 0x00, 0x00, 0x00, 0x03, 0x00, 0x00, 0x00, 0x16, 0x00, 0x00, 0x00,
    0x0e, 0x00, 0x00, 0x00, 0x0d, 0x00, 0x00, 0x00, 0xee, 0xfe, 0xff, 0xff,
    0x24, 0x00, 0x00, 0x00, 0x00, 0x00, 0x00, 0x05, 0x34, 0x00, 0x00, 0x00,
    0x38, 0x00, 0x00, 0x00, 0x05, 0x00, 0x00, 0x00, 0x00, 0x00, 0x0e, 0x00,
    0x18, 0x00, 0x17, 0x00, 0x10, 0x00, 0x0c, 0x00, 0x08, 0x00, 0x04, 0x00,
    0x0e, 0x00, 0x00, 0x00, 0x02, 0x00, 0x00, 0x00, 0x02, 0x00, 0x00, 0x00,
    0x02, 0x00, 0x00, 0x00, 0x02, 0x00, 0x00, 0x00, 0x00, 0x00, 0x00, 0x01,
    0x01, 0x00, 0x00, 0x00, 0x16, 0x00, 0x00, 0x00, 0x01, 0x00, 0x00, 0x00,
    0x15, 0x00, 0x00, 0x00, 0x3e, 0xff, 0xff, 0xff, 0x20, 0x00, 0x00, 0x00,
    0x00, 0x00, 0x00, 0x01, 0x28, 0x00, 0x00, 0x00, 0x2c, 0x00, 0x00, 0x00,
    0x04, 0x00, 0x00, 0x00, 0x0c, 0x00, 0x10, 0x00, 0x00, 0x00, 0x0c, 0x00,
    0x08, 0x00, 0x07, 0x00, 0x0c, 0x00, 0x00, 0x00, 0x00, 0x00, 0x00, 0x01,
    0x01, 0x00, 0x00, 0x00, 0x01, 0x00, 0x00, 0x00, 0x01, 0x00, 0x00, 0x00,
    0x15, 0x00, 0x00, 0x00, 0x03, 0x00, 0x00, 0x00, 0x14, 0x00, 0x00, 0x00,
    0x10, 0x00, 0x00, 0x00, 0x0f, 0x00, 0x00, 0x00, 0x00, 0x00, 0x0a, 0x00,
    0x10, 0x00, 0x0c, 0x00, 0x08, 0x00, 0x04, 0x00, 0x0a, 0x00, 0x00, 0x00,
    0x0c, 0x00, 0x00, 0x00, 0x10, 0x00, 0x00, 0x00, 0x03, 0x00, 0x00, 0x00,
    0x01, 0x00, 0x00, 0x00, 0x14, 0x00, 0x00, 0x00, 0x02, 0x00, 0x00, 0x00,
    0x00, 0x00, 0x00, 0x00, 0x13, 0x00, 0x00, 0x00, 0xba, 0xff, 0xff, 0xff,
    0x1c, 0x00, 0x00, 0x00, 0x00, 0x00, 0x00, 0x3b, 0x1c, 0x00, 0x00, 0x00,
    0x20, 0x00, 0x00, 0x00, 0x02, 0x00, 0x00, 0x00, 0x00, 0x00, 0x06, 0x00,
    0x08, 0x00, 0x04, 0x00, 0x06, 0x00, 0x00, 0x00, 0x04, 0x00, 0x00, 0x00,
    0x01, 0x00, 0x00, 0x00, 0x13, 0x00, 0x00, 0x00, 0x04, 0x00, 0x00, 0x00,
    0x12, 0x00, 0x00, 0x00, 0x03, 0x00, 0x00, 0x00, 0x04, 0x00, 0x00, 0x00,
    0x05, 0x00, 0x00, 0x00, 0x00, 0x00, 0x0e, 0x00, 0x1a, 0x00, 0x14, 0x00,
    0x10, 0x00, 0x0c, 0x00, 0x0b, 0x00, 0x04, 0x00, 0x0e, 0x00, 0x00, 0x00,
    0x24, 0x00, 0x00, 0x00, 0x00, 0x00, 0x00, 0x20, 0x24, 0x00, 0x00, 0x00,
    0x28, 0x00, 0x00, 0x00, 0x01, 0x00, 0x00, 0x00, 0x00, 0x00, 0x0e, 0x00,
    0x08, 0x00, 0x00, 0x00, 0x00, 0x00, 0x00, 0x00, 0x00, 0x00, 0x04, 0x00,
    0x0e, 0x00, 0x00, 0x00, 0x01, 0x00, 0x00, 0x00, 0x01, 0x00, 0x00, 0x00,
    0x12, 0x00, 0x00, 0x00, 0x04, 0x00, 0x00, 0x00, 0x11, 0x00, 0x00, 0x00,
    0x01, 0x00, 0x00, 0x00, 0x02, 0x00, 0x00, 0x00, 0x02, 0x00, 0x00, 0x00,
    0x00, 0x00, 0x0e, 0x00, 0x16, 0x00, 0x00, 0x00, 0x10, 0x00, 0x0c, 0x00,
    0x0b, 0x00, 0x04, 0x00, 0x0e, 0x00, 0x00, 0x00, 0x18, 0x00, 0x00, 0x00,
    0x00, 0x00, 0x00, 0x37, 0x18, 0x00, 0x00, 0x00, 0x1c, 0x00, 0x00, 0x00,
    0x00, 0x00, 0x06, 0x00, 0x08, 0x00, 0x07, 0x00, 0x06, 0x00, 0x00, 0x00,
    0x00, 0x00, 0x00, 0x02, 0x01, 0x00, 0x00, 0x00, 0x11, 0x00, 0x00, 0x00,
    0x01, 0x00, 0x00, 0x00, 0x00, 0x00, 0x00, 0x00, 0x01, 0x00, 0x00, 0x00,
    0x1d, 0x00, 0x00, 0x00, 0x01, 0x00, 0x00, 0x00, 0x00, 0x00, 0x00, 0x00,
    0x1e, 0x00, 0x00, 0x00, 0x80, 0x17, 0x00, 0x00, 0x00, 0x17, 0x00, 0x00,
    0xa8, 0x16, 0x00, 0x00, 0x4c, 0x16, 0x00, 0x00, 0xf0, 0x15, 0x00, 0x00,
    0x94, 0x15, 0x00, 0x00, 0x1c, 0x15, 0x00, 0x00, 0x94, 0x14, 0x00, 0x00,
    0x10, 0x14, 0x00, 0x00, 0xc4, 0x12, 0x00, 0x00, 0x98, 0x11, 0x00, 0x00,
    0x8c, 0x0f, 0x00, 0x00, 0xf0, 0x0d, 0x00, 0x00, 0x44, 0x0c, 0x00, 0x00,
    0x08, 0x0b, 0x00, 0x00, 0xc4, 0x09, 0x00, 0x00, 0xe8, 0x08, 0x00, 0x00,
    0x90, 0x08, 0x00, 0x00, 0x34, 0x08, 0x00, 0x00, 0xd4, 0x07, 0x00, 0x00,
    0x38, 0x07, 0x00, 0x00, 0x24, 0x06, 0x00, 0x00, 0x80, 0x05, 0x00, 0x00,
    0x64, 0x04, 0x00, 0x00, 0xc0, 0x03, 0x00, 0x00, 0xa4, 0x02, 0x00, 0x00,
    0x08, 0x02, 0x00, 0x00, 0x34, 0x01, 0x00, 0x00, 0x80, 0x00, 0x00, 0x00,
    0x04, 0x00, 0x00, 0x00, 0x0e, 0xe9, 0xff, 0xff, 0x00, 0x00, 0x00, 0x01,
    0x18, 0x00, 0x00, 0x00, 0x20, 0x00, 0x00, 0x00, 0x3c, 0x00, 0x00, 0x00,
    0x1e, 0x00, 0x00, 0x00, 0x00, 0x00, 0x00, 0x09, 0x50, 0x00, 0x00, 0x00,
    0x02, 0x00, 0x00, 0x00, 0xff, 0xff, 0xff, 0xff, 0x02, 0x00, 0x00, 0x00,
    0xf4, 0xe8, 0xff, 0xff, 0x08, 0x00, 0x00, 0x00, 0x10, 0x00, 0x00, 0x00,
    0x01, 0x00, 0x00, 0x00, 0x80, 0xff, 0xff, 0xff, 0xff, 0xff, 0xff, 0xff,
    0x01, 0x00, 0x00, 0x00, 0x00, 0x00, 0x80, 0x3b, 0x1b, 0x00, 0x00, 0x00,
    0x53, 0x74, 0x61, 0x74, 0x65, 0x66, 0x75, 0x6c, 0x50, 0x61, 0x72, 0x74,
    0x69, 0x74, 0x69, 0x6f, 0x6e, 0x65, 0x64, 0x43, 0x61, 0x6c, 0x6c, 0x5f,
    0x31, 0x3a, 0x30, 0x00, 0x02, 0x00, 0x00, 0x00, 0x01, 0x00, 0x00, 0x00,
    0x02, 0x00, 0x00, 0x00, 0x86, 0xe9, 0xff, 0xff, 0x00, 0x00, 0x00, 0x01,
    0x18, 0x00, 0x00, 0x00, 0x20, 0x00, 0x00, 0x00, 0x3c, 0x00, 0x00, 0x00,
    0x1d, 0x00, 0x00, 0x00, 0x00, 0x00, 0x00, 0x09, 0x88, 0x00, 0x00, 0x00,
    0x02, 0x00, 0x00, 0x00, 0xff, 0xff, 0xff, 0xff, 0x02, 0x00, 0x00, 0x00,
    0x6c, 0xe9, 0xff, 0xff, 0x08, 0x00, 0x00, 0x00, 0x10, 0x00, 0x00, 0x00,
    0x01, 0x00, 0x00, 0x00, 0x18, 0x00, 0x00, 0x00, 0x00, 0x00, 0x00, 0x00,
    0x01, 0x00, 0x00, 0x00, 0xf6, 0xf1, 0xca, 0x3d, 0x50, 0x00, 0x00, 0x00,
    0x73, 0x6e, 0x6f, 0x72, 0x65, 0x5f, 0x64, 0x61, 0x74, 0x61, 0x73, 0x65,
    0x74, 0x5f, 0x6c, 0x69, 0x67, 0x68, 0x74, 0x5f, 0x31, 0x2f, 0x6f, 0x75,
    0x74, 0x70, 0x75, 0x74, 0x5f, 0x30, 0x5f, 0x31, 0x2f, 0x4d, 0x61, 0x74,
    0x4d, 0x75, 0x6c, 0x3b, 0x73, 0x6e, 0x6f, 0x72, 0x65, 0x5f, 0x64, 0x61,
    0x74, 0x61, 0x73, 0x65, 0x74, 0x5f, 0x6c, 0x69, 0x67, 0x68, 0x74, 0x5f,
    0x31, 0x2f, 0x6f, 0x75, 0x74, 0x70, 0x75, 0x74, 0x5f, 0x30, 0x5f, 0x31,
    0x2f, 0x42, 0x69, 0x61, 0x73, 0x41, 0x64, 0x64, 0x00, 0x00, 0x00, 0x00,
    0x02, 0x00, 0x00, 0x00, 0x01, 0x00, 0x00, 0x00, 0x02, 0x00, 0x00, 0x00,
    0x36, 0xea, 0xff, 0xff, 0x00, 0x00, 0x00, 0x01, 0x18, 0x00, 0x00, 0x00,
    0x20, 0x00, 0x00, 0x00, 0x40, 0x00, 0x00, 0x00, 0x1c, 0x00, 0x00, 0x00,
    0x00, 0x00, 0x00, 0x09, 0xa8, 0x00, 0x00, 0x00, 0x02, 0x00, 0x00, 0x00,
    0xff, 0xff, 0xff, 0xff, 0x10, 0x00, 0x00, 0x00, 0x1c, 0xea, 0xff, 0xff,
    0x08, 0x00, 0x00, 0x00, 0x14, 0x00, 0x00, 0x00, 0x01, 0x00, 0x00, 0x00,
    0x80, 0xff, 0xff, 0xff, 0xff, 0xff, 0xff, 0xff, 0x00, 0x00, 0x00, 0x00,
    0x01, 0x00, 0x00, 0x00, 0xc3, 0xe8, 0x1a, 0x3d, 0x6d, 0x00, 0x00, 0x00,
    0x73, 0x6e, 0x6f, 0x72, 0x65, 0x5f, 0x64, 0x61, 0x74, 0x61, 0x73, 0x65,
    0x74, 0x5f, 0x6c, 0x69, 0x67, 0x68, 0x74, 0x5f, 0x31, 0x2f, 0x64, 0x65,
    0x6e, 0x73, 0x65, 0x5f, 0x31, 0x2f, 0x4d, 0x61, 0x74, 0x4d, 0x75, 0x6c,
    0x3b, 0x73, 0x6e, 0x6f, 0x72, 0x65, 0x5f, 0x64, 0x61, 0x74, 0x61, 0x73,
    0x65, 0x74, 0x5f, 0x6c, 0x69, 0x67, 0x68, 0x74, 0x5f, 0x31, 0x2f, 0x64,
    0x65, 0x6e, 0x73, 0x65, 0x5f, 0x31, 0x2f, 0x52, 0x65, 0x6c, 0x75, 0x3b,
    0x73, 0x6e, 0x6f, 0x72, 0x65, 0x5f, 0x64, 0x61, 0x74, 0x61, 0x73, 0x65,
    0x74, 0x5f, 0x6c, 0x69, 0x67, 0x68, 0x74, 0x5f, 0x31, 0x2f, 0x64, 0x65,
    0x6e, 0x73, 0x65, 0x5f, 0x31, 0x2f, 0x42, 0x69, 0x61, 0x73, 0x41, 0x64,
    0x64, 0x00, 0x00, 0x00, 0x02, 0x00, 0x00, 0x00, 0x01, 0x00, 0x00, 0x00,
    0x10, 0x00, 0x00, 0x00, 0x06, 0xeb, 0xff, 0xff, 0x00, 0x00, 0x00, 0x01,
    0x18, 0x00, 0x00, 0x00, 0x20, 0x00, 0x00, 0x00, 0x40, 0x00, 0x00, 0x00,
    0x1b, 0x00, 0x00, 0x00, 0x00, 0x00, 0x00, 0x09, 0x70, 0x00, 0x00, 0x00,
    0x02, 0x00, 0x00, 0x00, 0xff, 0xff, 0xff, 0xff, 0x18, 0x00, 0x00, 0x00,
    0xec, 0xea, 0xff, 0xff, 0x08, 0x00, 0x00, 0x00, 0x14, 0x00, 0x00, 0x00,
    0x01, 0x00, 0x00, 0x00, 0x80, 0xff, 0xff, 0xff, 0xff, 0xff, 0xff, 0xff,
    0x00, 0x00, 0x00, 0x00, 0x01, 0x00, 0x00, 0x00, 0x8a, 0x0b, 0xeb, 0x3c,
    0x35, 0x00, 0x00, 0x00, 0x73, 0x6e, 0x6f, 0x72, 0x65, 0x5f, 0x64, 0x61,
    0x74, 0x61, 0x73, 0x65, 0x74, 0x5f, 0x6c, 0x69, 0x67, 0x68, 0x74, 0x5f,
    0x31, 0x2f, 0x67, 0x6c, 0x6f, 0x62, 0x61, 0x6c, 0x5f, 0x61, 0x76, 0x65,
    0x72, 0x61, 0x67, 0x65, 0x5f, 0x70, 0x6f, 0x6f, 0x6c, 0x69, 0x6e, 0x67,
    0x32, 0x64, 0x5f, 0x31, 0x2f, 0x4d, 0x65, 0x61, 0x6e, 0x00, 0x00, 0x00,
    0x02, 0x00, 0x00, 0x00, 0x01, 0x00, 0x00, 0x00, 0x18, 0x00, 0x00, 0x00,
    0x9e, 0xeb, 0xff, 0xff, 0x00, 0x00, 0x00, 0x01, 0x18, 0x00, 0x00, 0x00,
    0x28, 0x00, 0x00, 0x00, 0x48, 0x00, 0x00, 0x00, 0x1a, 0x00, 0x00, 0x00,
    0x00, 0x00, 0x00, 0x09, 0xe8, 0x00, 0x00, 0x00, 0x04, 0x00, 0x00, 0x00,
    0xff, 0xff, 0xff, 0xff, 0x0f, 0x00, 0x00, 0x00, 0x05, 0x00, 0x00, 0x00,
    0x18, 0x00, 0x00, 0x00, 0x8c, 0xeb, 0xff, 0xff, 0x08, 0x00, 0x00, 0x00,
    0x14, 0x00, 0x00, 0x00, 0x01, 0x00, 0x00, 0x00, 0x80, 0xff, 0xff, 0xff,
    0xff, 0xff, 0xff, 0xff, 0x00, 0x00, 0x00, 0x00, 0x01, 0x00, 0x00, 0x00,
    0xbc, 0x34, 0xe5, 0x3d, 0xa5, 0x00, 0x00, 0x00, 0x73, 0x6e, 0x6f, 0x72,
    0x65, 0x5f, 0x64, 0x61, 0x74, 0x61, 0x73, 0x65, 0x74, 0x5f, 0x6c, 0x69,
    0x67, 0x68, 0x74, 0x5f, 0x31, 0x2f, 0x63, 0x6f, 0x6e, 0x76, 0x32, 0x64,
    0x5f, 0x32, 0x5f, 0x31, 0x2f, 0x52, 0x65, 0x6c, 0x75, 0x3b, 0x73, 0x6e,
    0x6f, 0x72, 0x65, 0x5f, 0x64, 0x61, 0x74, 0x61, 0x73, 0x65, 0x74, 0x5f,
    0x6c, 0x69, 0x67, 0x68, 0x74, 0x5f, 0x31, 0x2f, 0x63, 0x6f, 0x6e, 0x76,
    0x32, 0x64, 0x5f, 0x32, 0x5f, 0x31, 0x2f, 0x42, 0x69, 0x61, 0x73, 0x41,
    0x64, 0x64, 0x3b, 0x73, 0x6e, 0x6f, 0x72, 0x65, 0x5f, 0x64, 0x61, 0x74,
    0x61, 0x73, 0x65, 0x74, 0x5f, 0x6c, 0x69, 0x67, 0x68, 0x74, 0x5f, 0x31,
    0x2f, 0x63, 0x6f, 0x6e, 0x76, 0x32, 0x64, 0x5f, 0x32, 0x5f, 0x31, 0x2f,
    0x63, 0x6f, 0x6e, 0x76, 0x6f, 0x6c, 0x75, 0x74, 0x69, 0x6f, 0x6e, 0x3b,
    0x73, 0x6e, 0x6f, 0x72, 0x65, 0x5f, 0x64, 0x61, 0x74, 0x61, 0x73, 0x65,
    0x74, 0x5f, 0x6c, 0x69, 0x67, 0x68, 0x74, 0x5f, 0x31, 0x2f, 0x63, 0x6f,
    0x6e, 0x76, 0x32, 0x64, 0x5f, 0x32, 0x5f, 0x31, 0x2f, 0x53, 0x71, 0x75,
    0x65, 0x65, 0x7a, 0x65, 0x31, 0x00, 0x00, 0x00, 0x04, 0x00, 0x00, 0x00,
    0x01, 0x00, 0x00, 0x00, 0x0f, 0x00, 0x00, 0x00, 0x05, 0x00, 0x00, 0x00,
    0x18, 0x00, 0x00, 0x00, 0xb6, 0xec, 0xff, 0xff, 0x00, 0x00, 0x00, 0x01,
    0x18, 0x00, 0x00, 0x00, 0x28, 0x00, 0x00, 0x00, 0x44, 0x00, 0x00, 0x00,
    0x19, 0x00, 0x00, 0x00, 0x00, 0x00, 0x00, 0x09, 0x70, 0x00, 0x00, 0x00,
    0x04, 0x00, 0x00, 0x00, 0xff, 0xff, 0xff, 0xff, 0x0f, 0x00, 0x00, 0x00,
    0x05, 0x00, 0x00, 0x00, 0x10, 0x00, 0x00, 0x00, 0xa4, 0xec, 0xff, 0xff,
    0x08, 0x00, 0x00, 0x00, 0x10, 0x00, 0x00, 0x00, 0x01, 0x00, 0x00, 0x00,
    0x80, 0xff, 0xff, 0xff, 0xff, 0xff, 0xff, 0xff, 0x01, 0x00, 0x00, 0x00,
    0xa7, 0x34, 0x7d, 0x3d, 0x31, 0x00, 0x00, 0x00, 0x73, 0x6e, 0x6f, 0x72,
    0x65, 0x5f, 0x64, 0x61, 0x74, 0x61, 0x73, 0x65, 0x74, 0x5f, 0x6c, 0x69,
    0x67, 0x68, 0x74, 0x5f, 0x31, 0x2f, 0x6d, 0x61, 0x78, 0x5f, 0x70, 0x6f,
    0x6f, 0x6c, 0x69, 0x6e, 0x67, 0x32, 0x64, 0x5f, 0x31, 0x5f, 0x32, 0x2f,
    0x4d, 0x61, 0x78, 0x50, 0x6f, 0x6f, 0x6c, 0x32, 0x64, 0x00, 0x00, 0x00,
    0x04, 0x00, 0x00, 0x00, 0x01, 0x00, 0x00, 0x00, 0x0f, 0x00, 0x00, 0x00,
    0x05, 0x00, 0x00, 0x00, 0x10, 0x00, 0x00, 0x00, 0x56, 0xed, 0xff, 0xff,
    0x00, 0x00, 0x00, 0x01, 0x18, 0x00, 0x00, 0x00, 0x28, 0x00, 0x00, 0x00,
    0x48, 0x00, 0x00, 0x00, 0x18, 0x00, 0x00, 0x00, 0x00, 0x00, 0x00, 0x09,
    0xe8, 0x00, 0x00, 0x00, 0x04, 0x00, 0x00, 0x00, 0xff, 0xff, 0xff, 0xff,
    0x1e, 0x00, 0x00, 0x00, 0x0a, 0x00, 0x00, 0x00, 0x10, 0x00, 0x00, 0x00,
    0x44, 0xed, 0xff, 0xff, 0x08, 0x00, 0x00, 0x00, 0x14, 0x00, 0x00, 0x00,
    0x01, 0x00, 0x00, 0x00, 0x80, 0xff, 0xff, 0xff, 0xff, 0xff, 0xff, 0xff,
    0x00, 0x00, 0x00, 0x00, 0x01, 0x00, 0x00, 0x00, 0xa7, 0x34, 0x7d, 0x3d,
    0xa5, 0x00, 0x00, 0x00, 0x73, 0x6e, 0x6f, 0x72, 0x65, 0x5f, 0x64, 0x61,
    0x74, 0x61, 0x73, 0x65, 0x74, 0x5f, 0x6c, 0x69, 0x67, 0x68, 0x74, 0x5f,
    0x31, 0x2f, 0x63, 0x6f, 0x6e, 0x76, 0x32, 0x64, 0x5f, 0x31, 0x5f, 0x32,
    0x2f, 0x52, 0x65, 0x6c, 0x75, 0x3b, 0x73, 0x6e, 0x6f, 0x72, 0x65, 0x5f,
    0x64, 0x61, 0x74, 0x61, 0x73, 0x65, 0x74, 0x5f, 0x6c, 0x69, 0x67, 0x68,
    0x74, 0x5f, 0x31, 0x2f, 0x63, 0x6f, 0x6e, 0x76, 0x32, 0x64, 0x5f, 0x31,
    0x5f, 0x32, 0x2f, 0x42, 0x69, 0x61, 0x73, 0x41, 0x64, 0x64, 0x3b, 0x73,
    0x6e, 0x6f, 0x72, 0x65, 0x5f, 0x64, 0x61, 0x74, 0x61, 0x73, 0x65, 0x74,
    0x5f, 0x6c, 0x69, 0x67, 0x68, 0x74, 0x5f, 0x31, 0x2f, 0x63, 0x6f, 0x6e,
    0x76, 0x32, 0x64, 0x5f, 0x31, 0x5f, 0x32, 0x2f, 0x63, 0x6f, 0x6e, 0x76,
    0x6f, 0x6c, 0x75, 0x74, 0x69, 0x6f, 0x6e, 0x3b, 0x73, 0x6e, 0x6f, 0x72,
    0x65, 0x5f, 0x64, 0x61, 0x74, 0x61, 0x73, 0x65, 0x74, 0x5f, 0x6c, 0x69,
    0x67, 0x68, 0x74, 0x5f, 0x31, 0x2f, 0x63, 0x6f, 0x6e, 0x76, 0x32, 0x64,
    0x5f, 0x31, 0x5f, 0x32, 0x2f, 0x53, 0x71, 0x75, 0x65, 0x65, 0x7a, 0x65,
    0x31, 0x00, 0x00, 0x00, 0x04, 0x00, 0x00, 0x00, 0x01, 0x00, 0x00, 0x00,
    0x1e, 0x00, 0x00, 0x00, 0x0a, 0x00, 0x00, 0x00, 0x10, 0x00, 0x00, 0x00,
    0x6e, 0xee, 0xff, 0xff, 0x00, 0x00, 0x00, 0x01, 0x18, 0x00, 0x00, 0x00,
    0x28, 0x00, 0x00, 0x00, 0x48, 0x00, 0x00, 0x00, 0x17, 0x00, 0x00, 0x00,
    0x00, 0x00, 0x00, 0x09, 0x70, 0x00, 0x00, 0x00, 0x04, 0x00, 0x00, 0x00,
    0xff, 0xff, 0xff, 0xff, 0x1e, 0x00, 0x00, 0x00, 0x0a, 0x00, 0x00, 0x00,
    0x08, 0x00, 0x00, 0x00, 0x5c, 0xee, 0xff, 0xff, 0x08, 0x00, 0x00, 0x00,
    0x14, 0x00, 0x00, 0x00, 0x01, 0x00, 0x00, 0x00, 0x80, 0xff, 0xff, 0xff,
    0xff, 0xff, 0xff, 0xff, 0x00, 0x00, 0x00, 0x00, 0x01, 0x00, 0x00, 0x00,
    0xa7, 0x14, 0xf4, 0x3c, 0x2f, 0x00, 0x00, 0x00, 0x73, 0x6e, 0x6f, 0x72,
    0x65, 0x5f, 0x64, 0x61, 0x74, 0x61, 0x73, 0x65, 0x74, 0x5f, 0x6c, 0x69,
    0x67, 0x68, 0x74, 0x5f, 0x31, 0x2f, 0x6d, 0x61, 0x78, 0x5f, 0x70, 0x6f,
    0x6f, 0x6c, 0x69, 0x6e, 0x67, 0x32, 0x64, 0x5f, 0x31, 0x2f, 0x4d, 0x61,
    0x78, 0x50, 0x6f, 0x6f, 0x6c, 0x32, 0x64, 0x00, 0x04, 0x00, 0x00, 0x00,
    0x01, 0x00, 0x00, 0x00, 0x1e, 0x00, 0x00, 0x00, 0x0a, 0x00, 0x00, 0x00,
    0x08, 0x00, 0x00, 0x00, 0x0e, 0xef, 0xff, 0xff, 0x00, 0x00, 0x00, 0x01,
    0x18, 0x00, 0x00, 0x00, 0x28, 0x00, 0x00, 0x00, 0x48, 0x00, 0x00, 0x00,
    0x16, 0x00, 0x00, 0x00, 0x00, 0x00, 0x00, 0x09, 0xe0, 0x00, 0x00, 0x00,
    0x04, 0x00, 0x00, 0x00, 0xff, 0xff, 0xff, 0xff, 0x3c, 0x00, 0x00, 0x00,
    0x14, 0x00, 0x00, 0x00, 0x08, 0x00, 0x00, 0x00, 0xfc, 0xee, 0xff, 0xff,
    0x08, 0x00, 0x00, 0x00, 0x14, 0x00, 0x00, 0x00, 0x01, 0x00, 0x00, 0x00,
    0x80, 0xff, 0xff, 0xff, 0xff, 0xff, 0xff, 0xff, 0x00, 0x00, 0x00, 0x00,
    0x01, 0x00, 0x00, 0x00, 0xa7, 0x14, 0xf4, 0x3c, 0x9d, 0x00, 0x00, 0x00,
    0x73, 0x6e, 0x6f, 0x72, 0x65, 0x5f, 0x64, 0x61, 0x74, 0x61, 0x73, 0x65,
    0x74, 0x5f, 0x6c, 0x69, 0x67, 0x68, 0x74, 0x5f, 0x31, 0x2f, 0x63, 0x6f,
    0x6e, 0x76, 0x32, 0x64, 0x5f, 0x31, 0x2f, 0x52, 0x65, 0x6c, 0x75, 0x3b,
    0x73, 0x6e, 0x6f, 0x72, 0x65, 0x5f, 0x64, 0x61, 0x74, 0x61, 0x73, 0x65,
    0x74, 0x5f, 0x6c, 0x69, 0x67, 0x68, 0x74, 0x5f, 0x31, 0x2f, 0x63, 0x6f,
    0x6e, 0x76, 0x32, 0x64, 0x5f, 0x31, 0x2f, 0x42, 0x69, 0x61, 0x73, 0x41,
    0x64, 0x64, 0x3b, 0x73, 0x6e, 0x6f, 0x72, 0x65, 0x5f, 0x64, 0x61, 0x74,
    0x61, 0x73, 0x65, 0x74, 0x5f, 0x6c, 0x69, 0x67, 0x68, 0x74, 0x5f, 0x31,
    0x2f, 0x63, 0x6f, 0x6e, 0x76, 0x32, 0x64, 0x5f, 0x31, 0x2f, 0x63, 0x6f,
    0x6e, 0x76, 0x6f, 0x6c, 0x75, 0x74, 0x69, 0x6f, 0x6e, 0x3b, 0x73, 0x6e,
    0x6f, 0x72, 0x65, 0x5f, 0x64, 0x61, 0x74, 0x61, 0x73, 0x65, 0x74, 0x5f,
    0x6c, 0x69, 0x67, 0x68, 0x74, 0x5f, 0x31, 0x2f, 0x63, 0x6f, 0x6e, 0x76,
    0x32, 0x64, 0x5f, 0x31, 0x2f, 0x53, 0x71, 0x75, 0x65, 0x65, 0x7a, 0x65,
    0x31, 0x00, 0x00, 0x00, 0x04, 0x00, 0x00, 0x00, 0x01, 0x00, 0x00, 0x00,
    0x3c, 0x00, 0x00, 0x00, 0x14, 0x00, 0x00, 0x00, 0x08, 0x00, 0x00, 0x00,
    0x1e, 0xf0, 0xff, 0xff, 0x00, 0x00, 0x00, 0x01, 0x18, 0x00, 0x00, 0x00,
    0x28, 0x00, 0x00, 0x00, 0x48, 0x00, 0x00, 0x00, 0x15, 0x00, 0x00, 0x00,
    0x00, 0x00, 0x00, 0x09, 0x68, 0x00, 0x00, 0x00, 0x04, 0x00, 0x00, 0x00,
    0xff, 0xff, 0xff, 0xff, 0x3c, 0x00, 0x00, 0x00, 0x14, 0x00, 0x00, 0x00,
    0x01, 0x00, 0x00, 0x00, 0x0c, 0xf0, 0xff, 0xff, 0x08, 0x00, 0x00, 0x00,
    0x14, 0x00, 0x00, 0x00, 0x01, 0x00, 0x00, 0x00, 0x1a, 0x00, 0x00, 0x00,
    0x00, 0x00, 0x00, 0x00, 0x00, 0x00, 0x00, 0x00, 0x01, 0x00, 0x00, 0x00,
    0xb2, 0x0b, 0x57, 0x3d, 0x27, 0x00, 0x00, 0x00, 0x73, 0x6e, 0x6f, 0x72,
    0x65, 0x5f, 0x64, 0x61, 0x74, 0x61, 0x73, 0x65, 0x74, 0x5f, 0x6c, 0x69,
    0x67, 0x68, 0x74, 0x5f, 0x31, 0x2f, 0x72, 0x65, 0x73, 0x68, 0x61, 0x70,
    0x65, 0x5f, 0x31, 0x2f, 0x52, 0x65, 0x73, 0x68, 0x61, 0x70, 0x65, 0x00,
    0x04, 0x00, 0x00, 0x00, 0x01, 0x00, 0x00, 0x00, 0x3c, 0x00, 0x00, 0x00,
    0x14, 0x00, 0x00, 0x00, 0x01, 0x00, 0x00, 0x00, 0x32, 0xf1, 0xff, 0xff,
    0x00, 0x00, 0x00, 0x01, 0x14, 0x00, 0x00, 0x00, 0x14, 0x00, 0x00, 0x00,
    0x14, 0x00, 0x00, 0x00, 0x00, 0x00, 0x00, 0x02, 0x3c, 0x00, 0x00, 0x00,
    0x1c, 0xf1, 0xff, 0xff, 0x2d, 0x00, 0x00, 0x00, 0x73, 0x6e, 0x6f, 0x72,
    0x65, 0x5f, 0x64, 0x61, 0x74, 0x61, 0x73, 0x65, 0x74, 0x5f, 0x6c, 0x69,
    0x67, 0x68, 0x74, 0x5f, 0x31, 0x2f, 0x72, 0x65, 0x73, 0x68, 0x61, 0x70,
    0x65, 0x5f, 0x31, 0x2f, 0x52, 0x65, 0x73, 0x68, 0x61, 0x70, 0x65, 0x2f,
    0x73, 0x68, 0x61, 0x70, 0x65, 0x00, 0x00, 0x00, 0x01, 0x00, 0x00, 0x00,
    0x04, 0x00, 0x00, 0x00, 0x8e, 0xf1, 0xff, 0xff, 0x00, 0x00, 0x00, 0x01,
    0x14, 0x00, 0x00, 0x00, 0x14, 0x00, 0x00, 0x00, 0x13, 0x00, 0x00, 0x00,
    0x00, 0x00, 0x00, 0x02, 0x3c, 0x00, 0x00, 0x00, 0x78, 0xf1, 0xff, 0xff,
    0x2d, 0x00, 0x00, 0x00, 0x73, 0x6e, 0x6f, 0x72, 0x65, 0x5f, 0x64, 0x61,
    0x74, 0x61, 0x73, 0x65, 0x74, 0x5f, 0x6c, 0x69, 0x67, 0x68, 0x74, 0x5f,
    0x31, 0x2f, 0x72, 0x65, 0x73, 0x68, 0x61, 0x70, 0x65, 0x5f, 0x31, 0x2f,
    0x73, 0x74, 0x72, 0x69, 0x64, 0x65, 0x64, 0x5f, 0x73, 0x6c, 0x69, 0x63,
    0x65, 0x00, 0x00, 0x00, 0x00, 0x00, 0x00, 0x00, 0xe6, 0xf1, 0xff, 0xff,
    0x00, 0x00, 0x00, 0x01, 0x14, 0x00, 0x00, 0x00, 0x14, 0x00, 0x00, 0x00,
    0x12, 0x00, 0x00, 0x00, 0x00, 0x00, 0x00, 0x02, 0x34, 0x00, 0x00, 0x00,
    0xd0, 0xf1, 0xff, 0xff, 0x25, 0x00, 0x00, 0x00, 0x73, 0x6e, 0x6f, 0x72,
    0x65, 0x5f, 0x64, 0x61, 0x74, 0x61, 0x73, 0x65, 0x74, 0x5f, 0x6c, 0x69,
    0x67, 0x68, 0x74, 0x5f, 0x31, 0x2f, 0x72, 0x65, 0x73, 0x68, 0x61, 0x70,
    0x65, 0x5f, 0x31, 0x2f, 0x53, 0x68, 0x61, 0x70, 0x65, 0x00, 0x00, 0x00,
    0x01, 0x00, 0x00, 0x00, 0x03, 0x00, 0x00, 0x00, 0x3a, 0xf2, 0xff, 0xff,
    0x00, 0x00, 0x00, 0x01, 0x14, 0x00, 0x00, 0x00, 0x88, 0x00, 0x00, 0x00,
    0x11, 0x00, 0x00, 0x00, 0x00, 0x00, 0x00, 0x09, 0xac, 0x00, 0x00, 0x00,
    0x94, 0xf1, 0xff, 0xff, 0x08, 0x00, 0x00, 0x00, 0x4c, 0x00, 0x00, 0x00,
    0x08, 0x00, 0x00, 0x00, 0x00, 0x00, 0x00, 0x00, 0x00, 0x00, 0x00, 0x00,
    0x00, 0x00, 0x00, 0x00, 0x00, 0x00, 0x00, 0x00, 0x00, 0x00, 0x00, 0x00,
    0x00, 0x00, 0x00, 0x00, 0x00, 0x00, 0x00, 0x00, 0x00, 0x00, 0x00, 0x00,
    0x00, 0x00, 0x00, 0x00, 0x00, 0x00, 0x00, 0x00, 0x00, 0x00, 0x00, 0x00,
    0x00, 0x00, 0x00, 0x00, 0x00, 0x00, 0x00, 0x00, 0x00, 0x00, 0x00, 0x00,
    0x00, 0x00, 0x00, 0x00, 0x00, 0x00, 0x00, 0x00, 0x00, 0x00, 0x00, 0x00,
    0x08, 0x00, 0x00, 0x00, 0xec, 0x1e, 0x4c, 0x3b, 0xe6, 0x72, 0x38, 0x3b,
    0xfe, 0x70, 0xee, 0x3a, 0xb2, 0x1e, 0x69, 0x3b, 0x9e, 0xc2, 0x3c, 0x3b,
    0x7e, 0x74, 0x14, 0x3b, 0xcf, 0xde, 0x45, 0x3b, 0x94, 0x15, 0x1f, 0x3b,
    0x2a, 0x00, 0x00, 0x00, 0x73, 0x6e, 0x6f, 0x72, 0x65, 0x5f, 0x64, 0x61,
    0x74, 0x61, 0x73, 0x65, 0x74, 0x5f, 0x6c, 0x69, 0x67, 0x68, 0x74, 0x5f,
    0x31, 0x2f, 0x63, 0x6f, 0x6e, 0x76, 0x32, 0x64, 0x5f, 0x31, 0x2f, 0x63,
    0x6f, 0x6e, 0x76, 0x6f, 0x6c, 0x75, 0x74, 0x69, 0x6f, 0x6e, 0x00, 0x00,
    0x04, 0x00, 0x00, 0x00, 0x08, 0x00, 0x00, 0x00, 0x03, 0x00, 0x00, 0x00,
    0x03, 0x00, 0x00, 0x00, 0x01, 0x00, 0x00, 0x00, 0x12, 0xf3, 0xff, 0xff,
    0x00, 0x00, 0x00, 0x01, 0x14, 0x00, 0x00, 0x00, 0x88, 0x00, 0x00, 0x00,
    0x10, 0x00, 0x00, 0x00, 0x00, 0x00, 0x00, 0x02, 0x20, 0x01, 0x00, 0x00,
    0x6c, 0xf2, 0xff, 0xff, 0x08, 0x00, 0x00, 0x00, 0x4c, 0x00, 0x00, 0x00,
    0x08, 0x00, 0x00, 0x00, 0x00, 0x00, 0x00, 0x00, 0x00, 0x00, 0x00, 0x00,
    0x00, 0x00, 0x00, 0x00, 0x00, 0x00, 0x00, 0x00, 0x00, 0x00, 0x00, 0x00,
    0x00, 0x00, 0x00, 0x00, 0x00, 0x00, 0x00, 0x00, 0x00, 0x00, 0x00, 0x00,
    0x00, 0x00, 0x00, 0x00, 0x00, 0x00, 0x00, 0x00, 0x00, 0x00, 0x00, 0x00,
    0x00, 0x00, 0x00, 0x00, 0x00, 0x00, 0x00, 0x00, 0x00, 0x00, 0x00, 0x00,
    0x00, 0x00, 0x00, 0x00, 0x00, 0x00, 0x00, 0x00, 0x00, 0x00, 0x00, 0x00,
    0x08, 0x00, 0x00, 0x00, 0x4b, 0x77, 0x2b, 0x39, 0xec, 0xf0, 0x1a, 0x39,
    0xca, 0x4b, 0xc8, 0x38, 0x6e, 0xd3, 0x43, 0x39, 0x12, 0x90, 0x1e, 0x39,
    0x3c, 0x69, 0xf9, 0x38, 0x2a, 0x37, 0x26, 0x39, 0x64, 0xa2, 0x05, 0x39,
    0x9c, 0x00, 0x00, 0x00, 0x73, 0x6e, 0x6f, 0x72, 0x65, 0x5f, 0x64, 0x61,
    0x74, 0x61, 0x73, 0x65, 0x74, 0x5f, 0x6c, 0x69, 0x67, 0x68, 0x74, 0x5f,
    0x31, 0x2f, 0x63, 0x6f, 0x6e, 0x76, 0x32, 0x64, 0x5f, 0x31, 0x2f, 0x52,
    0x65, 0x6c, 0x75, 0x3b, 0x73, 0x6e, 0x6f, 0x72, 0x65, 0x5f, 0x64, 0x61,
    0x74, 0x61, 0x73, 0x65, 0x74, 0x5f, 0x6c, 0x69, 0x67, 0x68, 0x74, 0x5f,
    0x31, 0x2f, 0x63, 0x6f, 0x6e, 0x76, 0x32, 0x64, 0x5f, 0x31, 0x2f, 0x42,
    0x69, 0x61, 0x73, 0x41, 0x64, 0x64, 0x3b, 0x73, 0x6e, 0x6f, 0x72, 0x65,
    0x5f, 0x64, 0x61, 0x74, 0x61, 0x73, 0x65, 0x74, 0x5f, 0x6c, 0x69, 0x67,
    0x68, 0x74, 0x5f, 0x31, 0x2f, 0x63, 0x6f, 0x6e, 0x76, 0x32, 0x64, 0x5f,
    0x31, 0x2f, 0x63, 0x6f, 0x6e, 0x76, 0x6f, 0x6c, 0x75, 0x74, 0x69, 0x6f,
    0x6e, 0x3b, 0x73, 0x6e, 0x6f, 0x72, 0x65, 0x5f, 0x64, 0x61, 0x74, 0x61,
    0x73, 0x65, 0x74, 0x5f, 0x6c, 0x69, 0x67, 0x68, 0x74, 0x5f, 0x31, 0x2f,
    0x63, 0x6f, 0x6e, 0x76, 0x32, 0x64, 0x5f, 0x31, 0x2f, 0x53, 0x71, 0x75,
    0x65, 0x65, 0x7a, 0x65, 0x00, 0x00, 0x00, 0x00, 0x01, 0x00, 0x00, 0x00,
    0x08, 0x00, 0x00, 0x00, 0x52, 0xf4, 0xff, 0xff, 0x00, 0x00, 0x00, 0x01,
    0x14, 0x00, 0x00, 0x00, 0xe4, 0x00, 0x00, 0x00, 0x0f, 0x00, 0x00, 0x00,
    0x00, 0x00, 0x00, 0x09, 0x0c, 0x01, 0x00, 0x00, 0xac, 0xf3, 0xff, 0xff,
    0x08, 0x00, 0x00, 0x00, 0x88, 0x00, 0x00, 0x00, 0x10, 0x00, 0x00, 0x00,
    0x00, 0x00, 0x00, 0x00, 0x00, 0x00, 0x00, 0x00, 0x00, 0x00, 0x00, 0x00,
    0x00, 0x00, 0x00, 0x00, 0x00, 0x00, 0x00, 0x00, 0x00, 0x00, 0x00, 0x00,
    0x00, 0x00, 0x00, 0x00, 0x00, 0x00, 0x00, 0x00, 0x00, 0x00, 0x00, 0x00,
    0x00, 0x00, 0x00, 0x00, 0x00, 0x00, 0x00, 0x00, 0x00, 0x00, 0x00, 0x00,
    0x00, 0x00, 0x00, 0x00, 0x00, 0x00, 0x00, 0x00, 0x00, 0x00, 0x00, 0x00,
    0x00, 0x00, 0x00, 0x00, 0x00, 0x00, 0x00, 0x00, 0x00, 0x00, 0x00, 0x00,
    0x00, 0x00, 0x00, 0x00, 0x00, 0x00, 0x00, 0x00, 0x00, 0x00, 0x00, 0x00,
    0x00, 0x00, 0x00, 0x00, 0x00, 0x00, 0x00, 0x00, 0x00, 0x00, 0x00, 0x00,
    0x00, 0x00, 0x00, 0x00, 0x00, 0x00, 0x00, 0x00, 0x00, 0x00, 0x00, 0x00,
    0x00, 0x00, 0x00, 0x00, 0x00, 0x00, 0x00, 0x00, 0x00, 0x00, 0x00, 0x00,
    0x00, 0x00, 0x00, 0x00, 0x00, 0x00, 0x00, 0x00, 0x10, 0x00, 0x00, 0x00,
    0xcc, 0xc9, 0x64, 0x3b, 0x9f, 0x91, 0x21, 0x3b, 0xe0, 0x04, 0x58, 0x3b,
    0x38, 0xdd, 0x39, 0x3b, 0x68, 0x4c, 0x3d, 0x3b, 0x36, 0xe9, 0x31, 0x3b,
    0x13, 0x37, 0x21, 0x3b, 0x29, 0xf9, 0x2a, 0x3b, 0xe5, 0xcf, 0x43, 0x3b,
    0x63, 0x01, 0x3f, 0x3b, 0x1c, 0x0c, 0x3c, 0x3b, 0xfd, 0xd9, 0x1e, 0x3b,
    0x23, 0xca, 0x13, 0x3b, 0xce, 0x61, 0x23, 0x3b, 0x70, 0xc6, 0x5f, 0x3b,
    0xb9, 0xd5, 0x2b, 0x3b, 0x2c, 0x00, 0x00, 0x00, 0x73, 0x6e, 0x6f, 0x72,
    0x65, 0x5f, 0x64, 0x61, 0x74, 0x61, 0x73, 0x65, 0x74, 0x5f, 0x6c, 0x69,
    0x67, 0x68, 0x74, 0x5f, 0x31, 0x2f, 0x63, 0x6f, 0x6e, 0x76, 0x32, 0x64,
    0x5f, 0x31, 0x5f, 0x32, 0x2f, 0x63, 0x6f, 0x6e, 0x76, 0x6f, 0x6c, 0x75,
    0x74, 0x69, 0x6f, 0x6e, 0x00, 0x00, 0x00, 0x00, 0x04, 0x00, 0x00, 0x00,
    0x10, 0x00, 0x00, 0x00, 0x03, 0x00, 0x00, 0x00, 0x03, 0x00, 0x00, 0x00,
    0x08, 0x00, 0x00, 0x00, 0x8a, 0xf5, 0xff, 0xff, 0x00, 0x00, 0x00, 0x01,
    0x14, 0x00, 0x00, 0x00, 0xe8, 0x00, 0x00, 0x00, 0x0e, 0x00, 0x00, 0x00,
    0x00, 0x00, 0x00, 0x02, 0x88, 0x01, 0x00, 0x00, 0xe4, 0xf4, 0xff, 0xff,
    0x08, 0x00, 0x00, 0x00, 0x8c, 0x00, 0x00, 0x00, 0x10, 0x00, 0x00, 0x00,
    0x00, 0x00, 0x00, 0x00, 0x00, 0x00, 0x00, 0x00, 0x00, 0x00, 0x00, 0x00,
    0x00, 0x00, 0x00, 0x00, 0x00, 0x00, 0x00, 0x00, 0x00, 0x00, 0x00, 0x00,
    0x00, 0x00, 0x00, 0x00, 0x00, 0x00, 0x00, 0x00, 0x00, 0x00, 0x00, 0x00,
    0x00, 0x00, 0x00, 0x00, 0x00, 0x00, 0x00, 0x00, 0x00, 0x00, 0x00, 0x00,
    0x00, 0x00, 0x00, 0x00, 0x00, 0x00, 0x00, 0x00, 0x00, 0x00, 0x00, 0x00,
    0x00, 0x00, 0x00, 0x00, 0x00, 0x00, 0x00, 0x00, 0x00, 0x00, 0x00, 0x00,
    0x00, 0x00, 0x00, 0x00, 0x00, 0x00, 0x00, 0x00, 0x00, 0x00, 0x00, 0x00,
    0x00, 0x00, 0x00, 0x00, 0x00, 0x00, 0x00, 0x00, 0x00, 0x00, 0x00, 0x00,
    0x00, 0x00, 0x00, 0x00, 0x00, 0x00, 0x00, 0x00, 0x00, 0x00, 0x00, 0x00,
    0x00, 0x00, 0x00, 0x00, 0x00, 0x00, 0x00, 0x00, 0x00, 0x00, 0x00, 0x00,
    0x00, 0x00, 0x00, 0x00, 0x00, 0x00, 0x00, 0x00, 0x00, 0x00, 0x00, 0x00,
    0x10, 0x00, 0x00, 0x00, 0xcb, 0x22, 0xda, 0x38, 0xd4, 0x0b, 0x9a, 0x38,
    0x13, 0xf6, 0xcd, 0x38, 0xd8, 0x35, 0xb1, 0x38, 0x19, 0x7c, 0xb4, 0x38,
    0xa2, 0xa0, 0xa9, 0x38, 0x80, 0xb5, 0x99, 0x38, 0x46, 0x03, 0xa3, 0x38,
    0xf2, 0xb1, 0xba, 0x38, 0xbb, 0x1c, 0xb6, 0x38, 0xb6, 0x4a, 0xb3, 0x38,
    0x96, 0x74, 0x97, 0x38, 0x96, 0xe8, 0x8c, 0x38, 0x67, 0xc6, 0x9b, 0x38,
    0x30, 0x5b, 0xd5, 0x38, 0x91, 0xd5, 0xa3, 0x38, 0xa4, 0x00, 0x00, 0x00,
    0x73, 0x6e, 0x6f, 0x72, 0x65, 0x5f, 0x64, 0x61, 0x74, 0x61, 0x73, 0x65,
    0x74, 0x5f, 0x6c, 0x69, 0x67, 0x68, 0x74, 0x5f, 0x31, 0x2f, 0x63, 0x6f,
    0x6e, 0x76, 0x32, 0x64, 0x5f, 0x31, 0x5f, 0x32, 0x2f, 0x52, 0x65, 0x6c,
    0x75, 0x3b, 0x73, 0x6e, 0x6f, 0x72, 0x65, 0x5f, 0x64, 0x61, 0x74, 0x61,
    0x73, 0x65, 0x74, 0x5f, 0x6c, 0x69, 0x67, 0x68, 0x74, 0x5f, 0x31, 0x2f,
    0x63, 0x6f, 0x6e, 0x76, 0x32, 0x64, 0x5f, 0x31, 0x5f, 0x32, 0x2f, 0x42,
    0x69, 0x61, 0x73, 0x41, 0x64, 0x64, 0x3b, 0x73, 0x6e, 0x6f, 0x72, 0x65,
    0x5f, 0x64, 0x61, 0x74, 0x61, 0x73, 0x65, 0x74, 0x5f, 0x6c, 0x69, 0x67,
    0x68, 0x74, 0x5f, 0x31, 0x2f, 0x63, 0x6f, 0x6e, 0x76, 0x32, 0x64, 0x5f,
    0x31, 0x5f, 0x32, 0x2f, 0x63, 0x6f, 0x6e, 0x76, 0x6f, 0x6c, 0x75, 0x74,
    0x69, 0x6f, 0x6e, 0x3b, 0x73, 0x6e, 0x6f, 0x72, 0x65, 0x5f, 0x64, 0x61,
    0x74, 0x61, 0x73, 0x65, 0x74, 0x5f, 0x6c, 0x69, 0x67, 0x68, 0x74, 0x5f,
    0x31, 0x2f, 0x63, 0x6f, 0x6e, 0x76, 0x32, 0x64, 0x5f, 0x31, 0x5f, 0x32,
    0x2f, 0x53, 0x71, 0x75, 0x65, 0x65, 0x7a, 0x65, 0x00, 0x00, 0x00, 0x00,
    0x01, 0x00, 0x00, 0x00, 0x10, 0x00, 0x00, 0x00, 0x32, 0xf7, 0xff, 0xff,
    0x00, 0x00, 0x00, 0x01, 0x14, 0x00, 0x00, 0x00, 0x44, 0x01, 0x00, 0x00,
    0x0d, 0x00, 0x00, 0x00, 0x00, 0x00, 0x00, 0x09, 0x6c, 0x01, 0x00, 0x00,
    0x8c, 0xf6, 0xff, 0xff, 0x08, 0x00, 0x00, 0x00, 0xc8, 0x00, 0x00, 0x00,
    0x18, 0x00, 0x00, 0x00, 0x00, 0x00, 0x00, 0x00, 0x00, 0x00, 0x00, 0x00,
    0x00, 0x00, 0x00, 0x00, 0x00, 0x00, 0x00, 0x00, 0x00, 0x00, 0x00, 0x00,
    0x00, 0x00, 0x00, 0x00, 0x00, 0x00, 0x00, 0x00, 0x00, 0x00, 0x00, 0x00,
    0x00, 0x00, 0x00, 0x00, 0x00, 0x00, 0x00, 0x00, 0x00, 0x00, 0x00, 0x00,
    0x00, 0x00, 0x00, 0x00, 0x00, 0x00, 0x00, 0x00, 0x00, 0x00, 0x00, 0x00,
    0x00, 0x00, 0x00, 0x00, 0x00, 0x00, 0x00, 0x00, 0x00, 0x00, 0x00, 0x00,
    0x00, 0x00, 0x00, 0x00, 0x00, 0x00, 0x00, 0x00, 0x00, 0x00, 0x00, 0x00,
    0x00, 0x00, 0x00, 0x00, 0x00, 0x00, 0x00, 0x00, 0x00, 0x00, 0x00, 0x00,
    0x00, 0x00, 0x00, 0x00, 0x00, 0x00, 0x00, 0x00, 0x00, 0x00, 0x00, 0x00,
    0x00, 0x00, 0x00, 0x00, 0x00, 0x00, 0x00, 0x00, 0x00, 0x00, 0x00, 0x00,
    0x00, 0x00, 0x00, 0x00, 0x00, 0x00, 0x00, 0x00, 0x00, 0x00, 0x00, 0x00,
    0x00, 0x00, 0x00, 0x00, 0x00, 0x00, 0x00, 0x00, 0x00, 0x00, 0x00, 0x00,
    0x00, 0x00, 0x00, 0x00, 0x00, 0x00, 0x00, 0x00, 0x00, 0x00, 0x00, 0x00,
    0x00, 0x00, 0x00, 0x00, 0x00, 0x00, 0x00, 0x00, 0x00, 0x00, 0x00, 0x00,
    0x00, 0x00, 0x00, 0x00, 0x00, 0x00, 0x00, 0x00, 0x00, 0x00, 0x00, 0x00,
    0x00, 0x00, 0x00, 0x00, 0x00, 0x00, 0x00, 0x00, 0x00, 0x00, 0x00, 0x00,
    0x00, 0x00, 0x00, 0x00, 0x18, 0x00, 0x00, 0x00, 0x4f, 0x07, 0x5b, 0x3b,
    0xcb, 0xf1, 0x8b, 0x3b, 0x85, 0x32, 0x02, 0x3b, 0x4d, 0x8b, 0x34, 0x3b,
    0x30, 0x3b, 0x4c, 0x3b, 0x11, 0x05, 0x6c, 0x3b, 0xca, 0x16, 0x56, 0x3b,
    0x7d, 0xa7, 0x5d, 0x3b, 0xd9, 0x16, 0x64, 0x3b, 0x0e, 0x87, 0x45, 0x3b,
    0x88, 0xf9, 0x4c, 0x3b, 0xb6, 0xdb, 0x56, 0x3b, 0xc9, 0x92, 0x81, 0x3b,
    0xfa, 0x62, 0xae, 0x3b, 0x44, 0x85, 0x34, 0x3b, 0xbf, 0x85, 0xa6, 0x3b,
    0x90, 0x63, 0x4e, 0x3b, 0x97, 0x04, 0xf4, 0x3a, 0xb6, 0x7c, 0x7d, 0x3b,
    0x65, 0x60, 0x1d, 0x3b, 0xaa, 0xbc, 0x5f, 0x3b, 0x23, 0xe8, 0x97, 0x3b,
    0x8a, 0xee, 0xa7, 0x3b, 0x82, 0xf1, 0x15, 0x3b, 0x2c, 0x00, 0x00, 0x00,
    0x73, 0x6e, 0x6f, 0x72, 0x65, 0x5f, 0x64, 0x61, 0x74, 0x61, 0x73, 0x65,
    0x74, 0x5f, 0x6c, 0x69, 0x67, 0x68, 0x74, 0x5f, 0x31, 0x2f, 0x63, 0x6f,
    0x6e, 0x76, 0x32, 0x64, 0x5f, 0x32, 0x5f, 0x31, 0x2f, 0x63, 0x6f, 0x6e,
    0x76, 0x6f, 0x6c, 0x75, 0x74, 0x69, 0x6f, 0x6e, 0x00, 0x00, 0x00, 0x00,
    0x04, 0x00, 0x00, 0x00, 0x18, 0x00, 0x00, 0x00, 0x03, 0x00, 0x00, 0x00,
    0x03, 0x00, 0x00, 0x00, 0x10, 0x00, 0x00, 0x00, 0xca, 0xf8, 0xff, 0xff,
    0x00, 0x00, 0x00, 0x01, 0x14, 0x00, 0x00, 0x00, 0x48, 0x01, 0x00, 0x00,
    0x0c, 0x00, 0x00, 0x00, 0x00, 0x00, 0x00, 0x02, 0xe8, 0x01, 0x00, 0x00,
    0x24, 0xf8, 0xff, 0xff, 0x08, 0x00, 0x00, 0x00, 0xcc, 0x00, 0x00, 0x00,
    0x18, 0x00, 0x00, 0x00, 0x00, 0x00, 0x00, 0x00, 0x00, 0x00, 0x00, 0x00,
    0x00, 0x00, 0x00, 0x00, 0x00, 0x00, 0x00, 0x00, 0x00, 0x00, 0x00, 0x00,
    0x00, 0x00, 0x00, 0x00, 0x00, 0x00, 0x00, 0x00, 0x00, 0x00, 0x00, 0x00,
    0x00, 0x00, 0x00, 0x00, 0x00, 0x00, 0x00, 0x00, 0x00, 0x00, 0x00, 0x00,
    0x00, 0x00, 0x00, 0x00, 0x00, 0x00, 0x00, 0x00, 0x00, 0x00, 0x00, 0x00,
    0x00, 0x00, 0x00, 0x00, 0x00, 0x00, 0x00, 0x00, 0x00, 0x00, 0x00, 0x00,
    0x00, 0x00, 0x00, 0x00, 0x00, 0x00, 0x00, 0x00, 0x00, 0x00, 0x00, 0x00,
    0x00, 0x00, 0x00, 0x00, 0x00, 0x00, 0x00, 0x00, 0x00, 0x00, 0x00, 0x00,
    0x00, 0x00, 0x00, 0x00, 0x00, 0x00, 0x00, 0x00, 0x00, 0x00, 0x00, 0x00,
    0x00, 0x00, 0x00, 0x00, 0x00, 0x00, 0x00, 0x00, 0x00, 0x00, 0x00, 0x00,
    0x00, 0x00, 0x00, 0x00, 0x00, 0x00, 0x00, 0x00, 0x00, 0x00, 0x00, 0x00,
    0x00, 0x00, 0x00, 0x00, 0x00, 0x00, 0x00, 0x00, 0x00, 0x00, 0x00, 0x00,
    0x00, 0x00, 0x00, 0x00, 0x00, 0x00, 0x00, 0x00, 0x00, 0x00, 0x00, 0x00,
    0x00, 0x00, 0x00, 0x00, 0x00, 0x00, 0x00, 0x00, 0x00, 0x00, 0x00, 0x00,
    0x00, 0x00, 0x00, 0x00, 0x00, 0x00, 0x00, 0x00, 0x00, 0x00, 0x00, 0x00,
    0x00, 0x00, 0x00, 0x00, 0x00, 0x00, 0x00, 0x00, 0x00, 0x00, 0x00, 0x00,
    0x00, 0x00, 0x00, 0x00, 0x00, 0x00, 0x00, 0x00, 0x18, 0x00, 0x00, 0x00,
    0x45, 0xa3, 0x58, 0x39, 0xbe, 0x6a, 0x8a, 0x39, 0xb5, 0xc6, 0x00, 0x39,
    0xcd, 0x92, 0x32, 0x39, 0x80, 0x00, 0x4a, 0x39, 0x8d, 0x71, 0x69, 0x39,
    0x8e, 0xc0, 0x53, 0x39, 0x1d, 0x3c, 0x5b, 0x39, 0x7e, 0x99, 0x61, 0x39,
    0x19, 0x5f, 0x43, 0x39, 0xc4, 0xbc, 0x4a, 0x39, 0x54, 0x83, 0x54, 0x39,
    0xb7, 0x28, 0x80, 0x39, 0xaf, 0x7b, 0xac, 0x39, 0xd5, 0x8c, 0x32, 0x39,
    0x6e, 0xb4, 0xa4, 0x39, 0xd8, 0x22, 0x4c, 0x39, 0xb9, 0x5a, 0xf1, 0x38,
    0x63, 0xb8, 0x7a, 0x39, 0xa2, 0xa8, 0x1b, 0x39, 0x78, 0x4b, 0x5d, 0x39,
    0xa9, 0x3f, 0x96, 0x39, 0x48, 0x19, 0xa6, 0x39, 0x84, 0x4e, 0x14, 0x39,
    0xa4, 0x00, 0x00, 0x00, 0x73, 0x6e, 0x6f, 0x72, 0x65, 0x5f, 0x64, 0x61,
    0x74, 0x61, 0x73, 0x65, 0x74, 0x5f, 0x6c, 0x69, 0x67, 0x68, 0x74, 0x5f,
    0x31, 0x2f, 0x63, 0x6f, 0x6e, 0x76, 0x32, 0x64, 0x5f, 0x32, 0x5f, 0x31,
    0x2f, 0x52, 0x65, 0x6c, 0x75, 0x3b, 0x73, 0x6e, 0x6f, 0x72, 0x65, 0x5f,
    0x64, 0x61, 0x74, 0x61, 0x73, 0x65, 0x74, 0x5f, 0x6c, 0x69, 0x67, 0x68,
    0x74, 0x5f, 0x31, 0x2f, 0x63, 0x6f, 0x6e, 0x76, 0x32, 0x64, 0x5f, 0x32,
    0x5f, 0x31, 0x2f, 0x42, 0x69, 0x61, 0x73, 0x41, 0x64, 0x64, 0x3b, 0x73,
    0x6e, 0x6f, 0x72, 0x65, 0x5f, 0x64, 0x61, 0x74, 0x61, 0x73, 0x65, 0x74,
    0x5f, 0x6c, 0x69, 0x67, 0x68, 0x74, 0x5f, 0x31, 0x2f, 0x63, 0x6f, 0x6e,
    0x76, 0x32, 0x64, 0x5f, 0x32, 0x5f, 0x31, 0x2f, 0x63, 0x6f, 0x6e, 0x76,
    0x6f, 0x6c, 0x75, 0x74, 0x69, 0x6f, 0x6e, 0x3b, 0x73, 0x6e, 0x6f, 0x72,
    0x65, 0x5f, 0x64, 0x61, 0x74, 0x61, 0x73, 0x65, 0x74, 0x5f, 0x6c, 0x69,
    0x67, 0x68, 0x74, 0x5f, 0x31, 0x2f, 0x63, 0x6f, 0x6e, 0x76, 0x32, 0x64,
    0x5f, 0x32, 0x5f, 0x31, 0x2f, 0x53, 0x71, 0x75, 0x65, 0x65, 0x7a, 0x65,
    0x00, 0x00, 0x00, 0x00, 0x01, 0x00, 0x00, 0x00, 0x18, 0x00, 0x00, 0x00,
    0xd2, 0xfa, 0xff, 0xff, 0x00, 0x00, 0x00, 0x01, 0x14, 0x00, 0x00, 0x00,
    0xe4, 0x00, 0x00, 0x00, 0x0b, 0x00, 0x00, 0x00, 0x00, 0x00, 0x00, 0x09,
    0x04, 0x01, 0x00, 0x00, 0x2c, 0xfa, 0xff, 0xff, 0x08, 0x00, 0x00, 0x00,
    0x88, 0x00, 0x00, 0x00, 0x10, 0x00, 0x00, 0x00, 0x00, 0x00, 0x00, 0x00,
    0x00, 0x00, 0x00, 0x00, 0x00, 0x00, 0x00, 0x00, 0x00, 0x00, 0x00, 0x00,
    0x00, 0x00, 0x00, 0x00, 0x00, 0x00, 0x00, 0x00, 0x00, 0x00, 0x00, 0x00,
    0x00, 0x00, 0x00, 0x00, 0x00, 0x00, 0x00, 0x00, 0x00, 0x00, 0x00, 0x00,
    0x00, 0x00, 0x00, 0x00, 0x00, 0x00, 0x00, 0x00, 0x00, 0x00, 0x00, 0x00,
    0x00, 0x00, 0x00, 0x00, 0x00, 0x00, 0x00, 0x00, 0x00, 0x00, 0x00, 0x00,
    0x00, 0x00, 0x00, 0x00, 0x00, 0x00, 0x00, 0x00, 0x00, 0x00, 0x00, 0x00,
    0x00, 0x00, 0x00, 0x00, 0x00, 0x00, 0x00, 0x00, 0x00, 0x00, 0x00, 0x00,
    0x00, 0x00, 0x00, 0x00, 0x00, 0x00, 0x00, 0x00, 0x00, 0x00, 0x00, 0x00,
    0x00, 0x00, 0x00, 0x00, 0x00, 0x00, 0x00, 0x00, 0x00, 0x00, 0x00, 0x00,
    0x00, 0x00, 0x00, 0x00, 0x00, 0x00, 0x00, 0x00, 0x00, 0x00, 0x00, 0x00,
    0x00, 0x00, 0x00, 0x00, 0x10, 0x00, 0x00, 0x00, 0x80, 0x9d, 0xa7, 0x3b,
    0x34, 0xfd, 0x40, 0x3b, 0xd1, 0x44, 0x96, 0x3b, 0xd2, 0xbc, 0xc6, 0x3b,
    0x37, 0x12, 0x92, 0x3b, 0xbc, 0xc5, 0x45, 0x3b, 0x62, 0xb1, 0x96, 0x3b,
    0xce, 0xce, 0x44, 0x3b, 0x15, 0x4d, 0x03, 0x3c, 0x4e, 0x13, 0x61, 0x3b,
    0x78, 0x84, 0xa6, 0x3b, 0xa1, 0x7a, 0x7c, 0x3b, 0x63, 0x3b, 0x3b, 0x3b,
    0x29, 0xf3, 0xd6, 0x3b, 0xce, 0x78, 0xf1, 0x3b, 0x87, 0x8e, 0x8e, 0x3b,
    0x24, 0x00, 0x00, 0x00, 0x73, 0x6e, 0x6f, 0x72, 0x65, 0x5f, 0x64, 0x61,
    0x74, 0x61, 0x73, 0x65, 0x74, 0x5f, 0x6c, 0x69, 0x67, 0x68, 0x74, 0x5f,
    0x31, 0x2f, 0x64, 0x65, 0x6e, 0x73, 0x65, 0x5f, 0x31, 0x2f, 0x4d, 0x61,
    0x74, 0x4d, 0x75, 0x6c, 0x00, 0x00, 0x00, 0x00, 0x02, 0x00, 0x00, 0x00,
    0x10, 0x00, 0x00, 0x00, 0x18, 0x00, 0x00, 0x00, 0xfa, 0xfb, 0xff, 0xff,
    0x00, 0x00, 0x00, 0x01, 0x14, 0x00, 0x00, 0x00, 0xe4, 0x00, 0x00, 0x00,
    0x0a, 0x00, 0x00, 0x00, 0x00, 0x00, 0x00, 0x02, 0x28, 0x01, 0x00, 0x00,
    0x54, 0xfb, 0xff, 0xff, 0x08, 0x00, 0x00, 0x00, 0x88, 0x00, 0x00, 0x00,
    0x10, 0x00, 0x00, 0x00, 0x00, 0x00, 0x00, 0x00, 0x00, 0x00, 0x00, 0x00,
    0x00, 0x00, 0x00, 0x00, 0x00, 0x00, 0x00, 0x00, 0x00, 0x00, 0x00, 0x00,
    0x00, 0x00, 0x00, 0x00, 0x00, 0x00, 0x00, 0x00, 0x00, 0x00, 0x00, 0x00,
    0x00, 0x00, 0x00, 0x00, 0x00, 0x00, 0x00, 0x00, 0x00, 0x00, 0x00, 0x00,
    0x00, 0x00, 0x00, 0x00, 0x00, 0x00, 0x00, 0x00, 0x00, 0x00, 0x00, 0x00,
    0x00, 0x00, 0x00, 0x00, 0x00, 0x00, 0x00, 0x00, 0x00, 0x00, 0x00, 0x00,
    0x00, 0x00, 0x00, 0x00, 0x00, 0x00, 0x00, 0x00, 0x00, 0x00, 0x00, 0x00,
    0x00, 0x00, 0x00, 0x00, 0x00, 0x00, 0x00, 0x00, 0x00, 0x00, 0x00, 0x00,
    0x00, 0x00, 0x00, 0x00, 0x00, 0x00, 0x00, 0x00, 0x00, 0x00, 0x00, 0x00,
    0x00, 0x00, 0x00, 0x00, 0x00, 0x00, 0x00, 0x00, 0x00, 0x00, 0x00, 0x00,
    0x00, 0x00, 0x00, 0x00, 0x00, 0x00, 0x00, 0x00, 0x00, 0x00, 0x00, 0x00,
    0x10, 0x00, 0x00, 0x00, 0x23, 0xe5, 0x19, 0x39, 0x22, 0x31, 0xb1, 0x38,
    0xf2, 0xf7, 0x09, 0x39, 0x4a, 0x78, 0x36, 0x39, 0x4e, 0x1d, 0x06, 0x39,
    0x6e, 0x95, 0xb5, 0x38, 0xa0, 0x5b, 0x0a, 0x39, 0xb6, 0xb2, 0xb4, 0x38,
    0x5b, 0x1b, 0x71, 0x39, 0xde, 0xa6, 0xce, 0x38, 0x1c, 0xe3, 0x18, 0x39,
    0xf3, 0xcf, 0xe7, 0x38, 0xf4, 0xe7, 0xab, 0x38, 0xe7, 0x5a, 0x45, 0x39,
    0xc7, 0xb4, 0x5d, 0x39, 0x43, 0xe3, 0x02, 0x39, 0x48, 0x00, 0x00, 0x00,
    0x73, 0x6e, 0x6f, 0x72, 0x65, 0x5f, 0x64, 0x61, 0x74, 0x61, 0x73, 0x65,
    0x74, 0x5f, 0x6c, 0x69, 0x67, 0x68, 0x74, 0x5f, 0x31, 0x2f, 0x64, 0x65,
    0x6e, 0x73, 0x65, 0x5f, 0x31, 0x2f, 0x52, 0x65, 0x6c, 0x75, 0x3b, 0x73,
    0x6e, 0x6f, 0x72, 0x65, 0x5f, 0x64, 0x61, 0x74, 0x61, 0x73, 0x65, 0x74,
    0x5f, 0x6c, 0x69, 0x67, 0x68, 0x74, 0x5f, 0x31, 0x2f, 0x64, 0x65, 0x6e,
    0x73, 0x65, 0x5f, 0x31, 0x2f, 0x42, 0x69, 0x61, 0x73, 0x41, 0x64, 0x64,
    0x00, 0x00, 0x00, 0x00, 0x01, 0x00, 0x00, 0x00, 0x10, 0x00, 0x00, 0x00,
    0x42, 0xfd, 0xff, 0xff, 0x00, 0x00, 0x00, 0x01, 0x14, 0x00, 0x00, 0x00,
    0x3c, 0x00, 0x00, 0x00, 0x09, 0x00, 0x00, 0x00, 0x00, 0x00, 0x00, 0x09,
    0x5c, 0x00, 0x00, 0x00, 0x9c, 0xfc, 0xff, 0xff, 0x08, 0x00, 0x00, 0x00,
    0x18, 0x00, 0x00, 0x00, 0x02, 0x00, 0x00, 0x00, 0x00, 0x00, 0x00, 0x00,
    0x00, 0x00, 0x00, 0x00, 0x00, 0x00, 0x00, 0x00, 0x00, 0x00, 0x00, 0x00,
    0x02, 0x00, 0x00, 0x00, 0x3b, 0xe7, 0xb8, 0x3b, 0x96, 0xf9, 0xce, 0x3b,
    0x27, 0x00, 0x00, 0x00, 0x73, 0x6e, 0x6f, 0x72, 0x65, 0x5f, 0x64, 0x61,
    0x74, 0x61, 0x73, 0x65, 0x74, 0x5f, 0x6c, 0x69, 0x67, 0x68, 0x74, 0x5f,
    0x31, 0x2f, 0x6f, 0x75, 0x74, 0x70, 0x75, 0x74, 0x5f, 0x30, 0x5f, 0x31,
    0x2f, 0x4d, 0x61, 0x74, 0x4d, 0x75, 0x6c, 0x00, 0x02, 0x00, 0x00, 0x00,
    0x02, 0x00, 0x00, 0x00, 0x10, 0x00, 0x00, 0x00, 0xc2, 0xfd, 0xff, 0xff,
    0x00, 0x00, 0x00, 0x01, 0x14, 0x00, 0x00, 0x00, 0x40, 0x00, 0x00, 0x00,
    0x08, 0x00, 0x00, 0x00, 0x00, 0x00, 0x00, 0x02, 0x64, 0x00, 0x00, 0x00,
    0x1c, 0xfd, 0xff, 0xff, 0x08, 0x00, 0x00, 0x00, 0x1c, 0x00, 0x00, 0x00,
    0x02, 0x00, 0x00, 0x00, 0x00, 0x00, 0x00, 0x00, 0x00, 0x00, 0x00, 0x00,
    0x00, 0x00, 0x00, 0x00, 0x00, 0x00, 0x00, 0x00, 0x00, 0x00, 0x00, 0x00,
    0x02, 0x00, 0x00, 0x00, 0x70, 0xc6, 0x5f, 0x39, 0xa8, 0x7c, 0x7a, 0x39,
    0x28, 0x00, 0x00, 0x00, 0x73, 0x6e, 0x6f, 0x72, 0x65, 0x5f, 0x64, 0x61,
    0x74, 0x61, 0x73, 0x65, 0x74, 0x5f, 0x6c, 0x69, 0x67, 0x68, 0x74, 0x5f,
    0x31, 0x2f, 0x6f, 0x75, 0x74, 0x70, 0x75, 0x74, 0x5f, 0x30, 0x5f, 0x31,
    0x2f, 0x42, 0x69, 0x61, 0x73, 0x41, 0x64, 0x64, 0x00, 0x00, 0x00, 0x00,
    0x01, 0x00, 0x00, 0x00, 0x02, 0x00, 0x00, 0x00, 0x46, 0xfe, 0xff, 0xff,
    0x00, 0x00, 0x00, 0x01, 0x14, 0x00, 0x00, 0x00, 0x14, 0x00, 0x00, 0x00,
    0x07, 0x00, 0x00, 0x00, 0x00, 0x00, 0x00, 0x02, 0x54, 0x00, 0x00, 0x00,
    0x30, 0xfe, 0xff, 0xff, 0x47, 0x00, 0x00, 0x00, 0x73, 0x6e, 0x6f, 0x72,
    0x65, 0x5f, 0x64, 0x61, 0x74, 0x61, 0x73, 0x65, 0x74, 0x5f, 0x6c, 0x69,
    0x67, 0x68, 0x74, 0x5f, 0x31, 0x2f, 0x67, 0x6c, 0x6f, 0x62, 0x61, 0x6c,
    0x5f, 0x61, 0x76, 0x65, 0x72, 0x61, 0x67, 0x65, 0x5f, 0x70, 0x6f, 0x6f,
    0x6c, 0x69, 0x6e, 0x67, 0x32, 0x64, 0x5f, 0x31, 0x2f, 0x4d, 0x65, 0x61,
    0x6e, 0x2f, 0x72, 0x65, 0x64, 0x75, 0x63, 0x74, 0x69, 0x6f, 0x6e, 0x5f,
    0x69, 0x6e, 0x64, 0x69, 0x63, 0x65, 0x73, 0x00, 0x01, 0x00, 0x00, 0x00,
    0x02, 0x00, 0x00, 0x00, 0xba, 0xfe, 0xff, 0xff, 0x00, 0x00, 0x00, 0x01,
    0x14, 0x00, 0x00, 0x00, 0x14, 0x00, 0x00, 0x00, 0x03, 0x00, 0x00, 0x00,
    0x00, 0x00, 0x00, 0x02, 0x3c, 0x00, 0x00, 0x00, 0xa4, 0xfe, 0xff, 0xff,
    0x2f, 0x00, 0x00, 0x00, 0x73, 0x6e, 0x6f, 0x72, 0x65, 0x5f, 0x64, 0x61,
    0x74, 0x61, 0x73, 0x65, 0x74, 0x5f, 0x6c, 0x69, 0x67, 0x68, 0x74, 0x5f,
    0x31, 0x2f, 0x72, 0x65, 0x73, 0x68, 0x61, 0x70, 0x65, 0x5f, 0x31, 0x2f,
    0x52, 0x65, 0x73, 0x68, 0x61, 0x70, 0x65, 0x2f, 0x73, 0x68, 0x61, 0x70,
    0x65, 0x2f, 0x33, 0x00, 0x00, 0x00, 0x00, 0x00, 0x12, 0xff, 0xff, 0xff,
    0x00, 0x00, 0x00, 0x01, 0x14, 0x00, 0x00, 0x00, 0x14, 0x00, 0x00, 0x00,
    0x05, 0x00, 0x00, 0x00, 0x00, 0x00, 0x00, 0x02, 0x3c, 0x00, 0x00, 0x00,
    0xfc, 0xfe, 0xff, 0xff, 0x2f, 0x00, 0x00, 0x00, 0x73, 0x6e, 0x6f, 0x72,
    0x65, 0x5f, 0x64, 0x61, 0x74, 0x61, 0x73, 0x65, 0x74, 0x5f, 0x6c, 0x69,
    0x67, 0x68, 0x74, 0x5f, 0x31, 0x2f, 0x72, 0x65, 0x73, 0x68, 0x61, 0x70,
    0x65, 0x5f, 0x31, 0x2f, 0x52, 0x65, 0x73, 0x68, 0x61, 0x70, 0x65, 0x2f,
    0x73, 0x68, 0x61, 0x70, 0x65, 0x2f, 0x32, 0x00, 0x00, 0x00, 0x00, 0x00,
    0x6a, 0xff, 0xff, 0xff, 0x00, 0x00, 0x00, 0x01, 0x14, 0x00, 0x00, 0x00,
    0x14, 0x00, 0x00, 0x00, 0x04, 0x00, 0x00, 0x00, 0x00, 0x00, 0x00, 0x02,
    0x3c, 0x00, 0x00, 0x00, 0x54, 0xff, 0xff, 0xff, 0x2f, 0x00, 0x00, 0x00,
    0x73, 0x6e, 0x6f, 0x72, 0x65, 0x5f, 0x64, 0x61, 0x74, 0x61, 0x73, 0x65,
    0x74, 0x5f, 0x6c, 0x69, 0x67, 0x68, 0x74, 0x5f, 0x31, 0x2f, 0x72, 0x65,
    0x73, 0x68, 0x61, 0x70, 0x65, 0x5f, 0x31, 0x2f, 0x52, 0x65, 0x73, 0x68,
    0x61, 0x70, 0x65, 0x2f, 0x73, 0x68, 0x61, 0x70, 0x65, 0x2f, 0x31, 0x00,
    0x00, 0x00, 0x00, 0x00, 0xc2, 0xff, 0xff, 0xff, 0x00, 0x00, 0x00, 0x01,
    0x14, 0x00, 0x00, 0x00, 0x14, 0x00, 0x00, 0x00, 0x03, 0x00, 0x00, 0x00,
    0x00, 0x00, 0x00, 0x02, 0x1c, 0x00, 0x00, 0x00, 0xac, 0xff, 0xff, 0xff,
    0x0e, 0x00, 0x00, 0x00, 0x61, 0x72, 0x69, 0x74, 0x68, 0x2e, 0x63, 0x6f,
    0x6e, 0x73, 0x74, 0x61, 0x6e, 0x74, 0x00, 0x00, 0x01, 0x00, 0x00, 0x00,
    0x01, 0x00, 0x00, 0x00, 0x00, 0x00, 0x16, 0x00, 0x1c, 0x00, 0x18, 0x00,
    0x17, 0x00, 0x10, 0x00, 0x0c, 0x00, 0x08, 0x00, 0x00, 0x00, 0x00, 0x00,
    0x00, 0x00, 0x07, 0x00, 0x16, 0x00, 0x00, 0x00, 0x00, 0x00, 0x00, 0x01,
    0x18, 0x00, 0x00, 0x00, 0x18, 0x00, 0x00, 0x00, 0x02, 0x00, 0x00, 0x00,
    0x00, 0x00, 0x00, 0x02, 0x44, 0x00, 0x00, 0x00, 0x04, 0x00, 0x04, 0x00,
    0x04, 0x00, 0x00, 0x00, 0x33, 0x00, 0x00, 0x00, 0x73, 0x6e, 0x6f, 0x72,
    0x65, 0x5f, 0x64, 0x61, 0x74, 0x61, 0x73, 0x65, 0x74, 0x5f, 0x6c, 0x69,
    0x67, 0x68, 0x74, 0x5f, 0x31, 0x2f, 0x72, 0x65, 0x73, 0x68, 0x61, 0x70,
    0x65, 0x5f, 0x31, 0x2f, 0x73, 0x74, 0x72, 0x69, 0x64, 0x65, 0x64, 0x5f,
    0x73, 0x6c, 0x69, 0x63, 0x65, 0x2f, 0x73, 0x74, 0x61, 0x63, 0x6b, 0x00,
    0x01, 0x00, 0x00, 0x00, 0x01, 0x00, 0x00, 0x00, 0x00, 0x00, 0x16, 0x00,
    0x20, 0x00, 0x1c, 0x00, 0x1b, 0x00, 0x14, 0x00, 0x10, 0x00, 0x0c, 0x00,
    0x00, 0x00, 0x00, 0x00, 0x08, 0x00, 0x07, 0x00, 0x16, 0x00, 0x00, 0x00,
    0x00, 0x00, 0x00, 0x01, 0x18, 0x00, 0x00, 0x00, 0x30, 0x00, 0x00, 0x00,
    0x50, 0x00, 0x00, 0x00, 0x01, 0x00, 0x00, 0x00, 0x00, 0x00, 0x00, 0x09,
    0x68, 0x00, 0x00, 0x00, 0x03, 0x00, 0x00, 0x00, 0xff, 0xff, 0xff, 0xff,
    0x3c, 0x00, 0x00, 0x00, 0x14, 0x00, 0x00, 0x00, 0x0c, 0x00, 0x0c, 0x00,
    0x00, 0x00, 0x00, 0x00, 0x08, 0x00, 0x04, 0x00, 0x0c, 0x00, 0x00, 0x00,
    0x08, 0x00, 0x00, 0x00, 0x14, 0x00, 0x00, 0x00, 0x01, 0x00, 0x00, 0x00,
    0x1a, 0x00, 0x00, 0x00, 0x00, 0x00, 0x00, 0x00, 0x00, 0x00, 0x00, 0x00,
    0x01, 0x00, 0x00, 0x00, 0xb2, 0x0b, 0x57, 0x3d, 0x1f, 0x00, 0x00, 0x00,
    0x73, 0x65, 0x72, 0x76, 0x69, 0x6e, 0x67, 0x5f, 0x64, 0x65, 0x66, 0x61,
    0x75, 0x6c, 0x74, 0x5f, 0x6c, 0x61, 0x79, 0x65, 0x72, 0x5f, 0x30, 0x5f,
    0x69, 0x6e, 0x70, 0x75, 0x74, 0x3a, 0x30, 0x00, 0x03, 0x00, 0x00, 0x00,
    0x01, 0x00, 0x00, 0x00, 0x3c, 0x00, 0x00, 0x00, 0x14, 0x00, 0x00, 0x00,
    0x09, 0x00, 0x00, 0x00, 0xb0, 0x00, 0x00, 0x00, 0x94, 0x00, 0x00, 0x00,
    0x84, 0x00, 0x00, 0x00, 0x74, 0x00, 0x00, 0x00, 0x60, 0x00, 0x00, 0x00,
    0x40, 0x00, 0x00, 0x00, 0x2c, 0x00, 0x00, 0x00, 0x18, 0x00, 0x00, 0x00,
    0x04, 0x00, 0x00, 0x00, 0xc0, 0xff, 0xff, 0xff, 0x19, 0x00, 0x00, 0x00,
    0x02, 0x00, 0x00, 0x00, 0x00, 0x00, 0x00, 0x19, 0xd0, 0xff, 0xff, 0xff,
    0x09, 0x00, 0x00, 0x00, 0x04, 0x00, 0x00, 0x00, 0x00, 0x00, 0x00, 0x09,
    0xe0, 0xff, 0xff, 0xff, 0x28, 0x00, 0x00, 0x00, 0x02, 0x00, 0x00, 0x00,
    0x00, 0x00, 0x00, 0x28, 0xf0, 0xff, 0xff, 0xff, 0x11, 0x00, 0x00, 0x00,
    0x02, 0x00, 0x00, 0x00, 0x00, 0x00, 0x00, 0x11, 0x0c, 0x00, 0x10, 0x00,
    0x0f, 0x00, 0x00, 0x00, 0x08, 0x00, 0x04, 0x00, 0x0c, 0x00, 0x00, 0x00,
    0x03, 0x00, 0x00, 0x00, 0x03, 0x00, 0x00, 0x00, 0x00, 0x00, 0x00, 0x03,
    0xdc, 0xff, 0xff, 0xff, 0x16, 0x00, 0x00, 0x00, 0x00, 0x00, 0x00, 0x16,
    0xe8, 0xff, 0xff, 0xff, 0x53, 0x00, 0x00, 0x00, 0x00, 0x00, 0x00, 0x53,
    0xf4, 0xff, 0xff, 0xff, 0x2d, 0x00, 0x00, 0x00, 0x00, 0x00, 0x00, 0x2d,
    0x0c, 0x00, 0x0c, 0x00, 0x0b, 0x00, 0x00, 0x00, 0x00, 0x00, 0x04, 0x00,
    0x0c, 0x00, 0x00, 0x00, 0x4d, 0x00, 0x00, 0x00, 0x00, 0x00, 0x00, 0x4d,
};

static const size_t snore_model_tflite_len = 13512;
